<PAD>	0
<UNK>	0
<S>	0
</S>	0
▁t	-0
he	-1
ou	-2
▁a	-3
in	-4
re	-5
▁w	-6
▁s	-7
▁I	-8
ha	-9
on	-10
▁y	-11
▁you	-12
▁m	-13
▁the	-14
is	-15
▁b	-16
er	-17
ll	-18
▁d	-19
ing	-20
it	-21
▁c	-22
▁to	-23
an	-24
▁f	-25
▁g	-26
or	-27
hat	-28
..	-29
ve	-30
▁l	-31
en	-32
▁W	-33
▁n	-34
ow	-35
▁T	-36
▁-	-37
ed	-38
▁p	-39
om	-40
▁o	-41
es	-42
nd	-43
ot	-44
et	-45
▁he	-46
ar	-47
st	-48
▁Y	-49
at	-50
▁th	-51
▁h	-52
ay	-53
▁S	-54
▁ha	-55
▁in	-56
▁it	-57
▁of	-58
▁H	-59
▁A	-60
le	-61
▁me	-62
as	-63
▁be	-64
▁You	-65
▁is	-66
▁on	-67
id	-68
gh	-69
▁that	-70
▁k	-71
▁u	-72
...	-73
ld	-74
▁we	-75
im	-76
ic	-77
ut	-78
ac	-79
se	-80
al	-81
ke	-82
▁and	-83
▁e	-84
▁M	-85
▁C	-86
ght	-87
ver	-88
out	-89
oo	-90
▁do	-91
ri	-92
▁B	-93
ome	-94
▁N	-95
ad	-96
▁D	-97
▁The	-98
▁for	-99
▁your	-100
ill	-101
▁re	-102
▁this	-103
am	-104
▁O	-105
▁st	-106
ir	-107
▁He	-108
▁G	-109
▁have	-110
ust	-111
▁We	-112
▁my	-113
▁go	-114
▁are	-115
▁kn	-116
▁L	-117
▁not	-118
ion	-119
▁li	-120
▁an	-121
ly	-122
ith	-123
ro	-124
▁know	-125
▁was	-126
▁What	-127
ee	-128
ent	-129
▁with	-130
▁can	-131
ould	-132
▁j	-133
▁It	-134
all	-135
▁ne	-136
her	-137
ho	-138
ant	-139
▁don	-140
▁P	-141
ec	-142
ur	-143
▁what	-144
▁here	-145
hing	-146
▁get	-147
if	-148
ea	-149
▁him	-150
ake	-151
pp	-152
▁out	-153
ack	-154
▁R	-155
one	-156
ter	-157
▁F	-158
ry	-159
op	-160
ch	-161
▁all	-162
▁ab	-163
un	-164
▁J	-165
ce	-166
▁as	-167
▁up	-168
▁just	-169
our	-170
▁And	-171
right	-172
il	-173
han	-174
ook	-175
and	-176
▁like	-177
ell	-178
ra	-179
▁want	-180
▁No	-181
▁E	-182
▁sh	-183
ck	-184
▁at	-185
▁did	-186
ink	-187
ive	-188
▁will	-189
ood	-190
▁right	-191
▁about	-192
ind	-193
▁got	-194
▁there	-195
na	-196
ight	-197
very	-198
hy	-199
rom	-200
▁so	-201
▁wor	-202
ore	-203
▁us	-204
ge	-205
▁That	-206
ie	-207
▁her	-208
here	-209
▁one	-210
au	-211
art	-212
▁any	-213
▁no	-214
od	-215
ess	-216
▁su	-217
▁r	-218
▁they	-219
▁think	-220
▁lo	-221
ain	-222
own	-223
▁Th	-224
▁sa	-225
▁"	-226
us	-227
▁now	-228
end	-229
▁al	-230
▁see	-231
ist	-232
ame	-233
▁from	-234
▁de	-235
est	-236
▁but	-237
ate	-238
▁But	-239
hen	-240
▁back	-241
▁K	-242
▁need	-243
▁man	-244
▁com	-245
ig	-246
▁if	-247
▁pl	-248
ab	-249
ast	-250
ime	-251
ally	-252
ct	-253
kay	-254
▁some	-255
ol	-256
▁his	-257
os	-258
ation	-259
▁them	-260
▁who	-261
▁going	-262
ers	-263
onna	-264
ong	-265
ak	-266
▁gonna	-267
ase	-268
rou	-269
ul	-270
nt	-271
um	-272
▁Oh	-273
▁This	-274
▁say	-275
▁So	-276
em	-277
are	-278
▁she	-279
ear	-280
ice	-281
ine	-282
▁or	-283
▁come	-284
▁con	-285
▁would	-286
▁gu	-287
▁time	-288
▁ex	-289
eah	-290
▁They	-291
ect	-292
el	-293
qu	-294
alk	-295
▁How	-296
other	-297
▁were	-298
▁Hey	-299
fe	-300
▁our	-301
▁look	-302
ard	-303
way	-304
▁tell	-305
▁sp	-306
▁been	-307
▁pro	-308
▁has	-309
▁Come	-310
ure	-311
ick	-312
thing	-313
ace	-314
omet	-315
ap	-316
▁happ	-317
ort	-318
▁ag	-319
▁too	-320
▁She	-321
▁tr	-322
▁take	-323
▁If	-324
▁good	-325
▁down	-326
ven	-327
▁St	-328
▁off	-329
ide	-330
▁am	-331
▁every	-332
▁could	-333
▁Well	-334
▁Why	-335
▁thing	-336
▁v	-337
lease	-338
ire	-339
uck	-340
▁Do	-341
▁Yeah	-342
▁way	-343
itt	-344
▁had	-345
ause	-346
omething	-347
lp	-348
▁U	-349
▁There	-350
ble	-351
▁when	-352
ag	-353
▁how	-354
▁int	-355
▁Don	-356
▁should	-357
ous	-358
▁talk	-359
▁kill	-360
hi	-361
▁pe	-362
res	-363
▁cl	-364
▁let	-365
▁didn	-366
▁call	-367
▁by	-368
▁work	-369
ople	-370
▁happen	-371
ove	-372
▁something	-373
▁1	-374
ity	-375
lf	-376
▁guy	-377
▁All	-378
reat	-379
▁make	-380
▁Let	-381
▁only	-382
hank	-383
▁My	-384
▁mean	-385
th	-386
nder	-387
▁love	-388
▁Where	-389
age	-390
ait	-391
eep	-392
▁Who	-393
▁day	-394
▁br	-395
▁over	-396
ud	-397
▁bl	-398
ber	-399
▁people	-400
▁more	-401
▁find	-402
▁'	-403
ound	-404
▁Okay	-405
ff	-406
▁le	-407
▁never	-408
▁bo	-409
ose	-410
▁help	-411
ving	-412
▁V	-413
▁se	-414
ies	-415
▁does	-416
ther	-417
wo	-418
ree	-419
."	-420
▁said	-421
▁why	-422
▁lea	-423
▁Yes	-424
pl	-425
▁where	-426
act	-427
orry	-428
ond	-429
red	-430
iss	-431
ody	-432
▁Not	-433
▁en	-434
▁qu	-435
▁Now	-436
pt	-437
ew	-438
▁Just	-439
▁then	-440
▁give	-441
▁okay	-442
▁ro	-443
▁sc	-444
ather	-445
▁Look	-446
▁doing	-447
▁Get	-448
ting	-449
ady	-450
ittle	-451
▁under	-452
▁really	-453
▁sir	-454
ass	-455
▁bec	-456
riend	-457
▁Is	-458
ning	-459
ue	-460
be	-461
ost	-462
▁Are	-463
ull	-464
per	-465
▁little	-466
self	-467
▁again	-468
irst	-469
ave	-470
ob	-471
▁un	-472
ment	-473
▁life	-474
▁bet	-475
fter	-476
▁ask	-477
uch	-478
ite	-479
▁into	-480
ish	-481
old	-482
▁even	-483
▁On	-484
▁Mr	-485
▁two	-486
▁year	-487
▁pr	-488
▁In	-489
▁An	-490
har	-491
iz	-492
ade	-493
round	-494
fore	-495
▁Go	-496
ft	-497
▁other	-498
▁bel	-499
▁much	-500
▁very	-501
ought	-502
▁name	-503
urn	-504
ough	-505
irl	-506
get	-507
▁im	-508
ang	-509
00	-510
eel	-511
▁Your	-512
▁hand	-513
ord	-514
ach	-515
▁anything	-516
ep	-517
▁Thank	-518
ark	-519
▁these	-520
▁try	-521
▁away	-522
▁ar	-523
body	-524
▁car	-525
▁friend	-526
▁sec	-527
row	-528
▁chan	-529
▁God	-530
▁their	-531
▁Sh	-532
▁rem	-533
▁still	-534
day	-535
ise	-536
▁girl	-537
▁..	-538
▁home	-539
▁before	-540
▁keep	-541
▁new	-542
▁Please	-543
oney	-544
▁wr	-545
▁sure	-546
ia	-547
▁long	-548
▁wat	-549
▁won	-550
▁sorry	-551
▁first	-552
▁than	-553
ress	-554
▁feel	-555
▁2	-556
▁told	-557
isten	-558
▁Can	-559
oll	-560
▁after	-561
▁ac	-562
▁pre	-563
aybe	-564
ieve	-565
▁min	-566
ty	-567
ans	-568
▁Did	-569
▁please	-570
orm	-571
ail	-572
▁wait	-573
og	-574
hic	-575
▁must	-576
ory	-577
▁fl	-578
▁thought	-579
▁happened	-580
▁father	-581
▁years	-582
▁care	-583
▁kid	-584
▁because	-585
▁night	-586
▁last	-587
▁Good	-588
stand	-589
▁sw	-590
▁coming	-591
ever	-592
ool	-593
▁dis	-594
ions	-595
▁leave	-596
▁son	-597
ip	-598
ily	-599
ile	-600
▁place	-601
▁cont	-602
ance	-603
sp	-604
▁put	-605
ious	-606
▁guys	-607
▁When	-608
▁part	-609
▁sm	-610
xt	-611
▁start	-612
ock	-613
pen	-614
▁act	-615
▁ad	-616
▁made	-617
ug	-618
able	-619
▁boy	-620
▁plan	-621
▁hell	-622
▁stop	-623
int	-624
hed	-625
ouse	-626
ount	-627
aught	-628
▁done	-629
▁real	-630
ign	-631
▁well	-632
▁believe	-633
▁world	-634
side	-635
▁ever	-636
aking	-637
▁run	-638
av	-639
oss	-640
ways	-641
▁around	-642
▁fuck	-643
ary	-644
▁te	-645
▁understand	-646
ons	-647
▁Then	-648
▁live	-649
▁head	-650
▁...	-651
▁che	-652
ey	-653
ren	-654
▁doesn	-655
▁el	-656
▁minut	-657
ial	-658
ried	-659
▁stay	-660
▁move	-661
ath	-662
ence	-663
▁id	-664
▁bu	-665
▁cr	-666
▁left	-667
▁better	-668
▁tra	-669
aw	-670
▁Cl	-671
rough	-672
▁money	-673
▁everything	-674
▁things	-675
▁For	-676
▁came	-677
▁those	-678
port	-679
hich	-680
up	-681
▁hear	-682
▁show	-683
ict	-684
▁found	-685
▁dead	-686
▁ass	-687
ta	-688
▁lot	-689
▁Every	-690
ated	-691
▁fam	-692
▁someone	-693
▁through	-694
oc	-695
ember	-696
▁Al	-697
▁always	-698
▁comp	-699
ix	-700
▁Bec	-701
▁wrong	-702
▁big	-703
▁own	-704
▁mat	-705
mm	-706
▁per	-707
▁mar	-708
▁nothing	-709
▁dr	-710
▁great	-711
ub	-712
▁ph	-713
▁bad	-714
ye	-715
▁Br	-716
▁else	-717
▁supp	-718
ful	-719
▁talking	-720
▁meet	-721
ister	-722
▁brother	-723
▁cour	-724
▁po	-725
▁app	-726
▁gr	-727
ank	-728
ny	-729
▁sur	-730
ike	-731
▁miss	-732
iv	-733
▁_	-734
ian	-735
▁play	-736
▁Dad	-737
▁house	-738
▁att	-739
▁Ch	-740
ually	-741
▁sho	-742
▁wanted	-743
▁As	-744
▁looking	-745
▁getting	-746
▁Because	-747
ied	-748
▁Jo	-749
▁Am	-750
blem	-751
▁rec	-752
▁kind	-753
▁old	-754
▁ser	-755
▁sha	-756
eet	-757
▁dec	-758
▁har	-759
oy	-760
een	-761
ng	-762
oth	-763
▁isn	-764
▁cle	-765
▁Here	-766
▁trying	-767
les	-768
▁mother	-769
▁job	-770
▁might	-771
▁mom	-772
anna	-773
▁pol	-774
▁problem	-775
aby	-776
ont	-777
ife	-778
▁One	-779
--	-780
erson	-781
▁many	-782
▁ra	-783
▁str	-784
ible	-785
ince	-786
▁fine	-787
▁mon	-788
▁Tell	-789
▁Re	-790
▁To	-791
▁being	-792
▁co	-793
▁today	-794
▁acc	-795
ah	-796
▁(	-797
ash	-798
▁Take	-799
▁Sir	-800
▁same	-801
▁die	-802
ple	-803
▁three	-804
▁family	-805
▁enough	-806
tain	-807
ors	-808
▁saw	-809
ower	-810
▁use	-811
akes	-812
▁gotta	-813
▁killed	-814
▁dad	-815
hn	-816
▁end	-817
▁Maybe	-818
▁save	-819
dy	-820
▁bus	-821
▁comm	-822
▁another	-823
▁remember	-824
▁Hell	-825
▁took	-826
uth	-827
▁may	-828
▁dif	-829
ations	-830
▁3	-831
der	-832
▁sl	-833
▁yourself	-834
▁seen	-835
ek	-836
▁turn	-837
▁des	-838
▁bit	-839
▁heart	-840
▁♪	-841
▁bring	-842
so	-843
▁hur	-844
▁Jack	-845
▁person	-846
▁Ex	-847
ret	-848
imes	-849
▁Wait	-850
hes	-851
▁mind	-852
atch	-853
▁without	-854
uh	-855
igh	-856
▁Be	-857
man	-858
▁anyone	-859
▁open	-860
pped	-861
▁days	-862
▁hour	-863
▁next	-864
▁ent	-865
▁chi	-866
▁war	-867
ild	-868
reak	-869
osed	-870
ps	-871
▁em	-872
▁Some	-873
▁listen	-874
▁lost	-875
▁wanna	-876
ope	-877
ready	-878
ating	-879
▁gone	-880
▁fin	-881
aughter	-882
rest	-883
▁De	-884
orrow	-885
ner	-886
▁course	-887
rent	-888
▁fun	-889
▁room	-890
▁Stop	-891
air	-892
▁quest	-893
▁gun	-894
orning	-895
▁went	-896
ss	-897
▁already	-898
gether	-899
ream	-900
land	-901
▁Hello	-902
eak	-903
▁saying	-904
▁met	-905
▁dri	-906
▁set	-907
▁second	-908
▁knew	-909
use	-910
▁baby	-911
▁used	-912
▁ago	-913
iles	-914
aj	-915
▁which	-916
ollow	-917
▁men	-918
▁Or	-919
▁ready	-920
amn	-921
ms	-922
ason	-923
▁idea	-924
my	-925
▁mo	-926
▁yö	-927
▁fr	-928
▁best	-929
▁hold	-930
▁Give	-931
form	-932
gg	-933
▁word	-934
ars	-935
▁week	-936
where	-937
▁matter	-938
less	-939
ident	-940
▁ch	-941
pe	-942
▁child	-943
▁See	-944
ax	-945
ens	-946
▁daughter	-947
▁together	-948
▁Any	-949
ition	-950
▁Right	-951
vel	-952
▁wasn	-953
▁thank	-954
ical	-955
▁friends	-956
yes	-957
▁cra	-958
▁OK	-959
▁Un	-960
▁few	-961
hile	-962
▁rest	-963
ott	-964
leep	-965
ings	-966
ater	-967
▁num	-968
▁inside	-969
▁hit	-970
▁shit	-971
▁heard	-972
cle	-973
ins	-974
▁hard	-975
▁Sorry	-976
▁%	-977
▁minutes	-978
▁called	-979
ize	-980
ense	-981
▁4	-982
▁wife	-983
▁water	-984
▁i	-985
aut	-986
▁phone	-987
ird	-988
▁Char	-989
▁also	-990
▁diffe	-991
▁Uh	-992
▁res	-993
orn	-994
ntil	-995
▁far	-996
aster	-997
▁wouldn	-998
▁Listen	-999
▁Will	-1000
▁morning	-1001
▁Have	-1002
▁whole	-1003
▁wom	-1004
zy	-1005
▁prom	-1006
▁At	-1007
▁Hi	-1008
▁fight	-1009
▁nice	-1010
▁yet	-1011
ared	-1012
▁walk	-1013
▁cho	-1014
▁5	-1015
▁sister	-1016
▁tow	-1017
▁pret	-1018
▁count	-1019
anc	-1020
▁cha	-1021
▁police	-1022
ying	-1023
iness	-1024
▁most	-1025
▁yeah	-1026
ru	-1027
▁once	-1028
▁fire	-1029
▁guess	-1030
▁alone	-1031
▁check	-1032
▁both	-1033
ctor	-1034
▁sign	-1035
▁such	-1036
med	-1037
uff	-1038
▁face	-1039
▁everyone	-1040
▁safe	-1041
▁pass	-1042
ult	-1043
▁John	-1044
ject	-1045
ik	-1046
ness	-1047
▁eyes	-1048
ient	-1049
▁Mom	-1050
▁Q	-1051
ib	-1052
▁soon	-1053
▁yes	-1054
▁deal	-1055
ves	-1056
rew	-1057
▁fucking	-1058
▁uh	-1059
cess	-1060
▁hurt	-1061
▁[	-1062
▁sit	-1063
▁trust	-1064
▁rel	-1065
▁mess	-1066
arl	-1067
sw	-1068
▁blood	-1069
▁ter	-1070
▁stand	-1071
▁gave	-1072
▁pay	-1073
▁prot	-1074
▁sy	-1075
ger	-1076
▁tom	-1077
▁maybe	-1078
ier	-1079
▁knows	-1080
▁follow	-1081
rop	-1082
▁hum	-1083
ude	-1084
lect	-1085
▁hands	-1086
asy	-1087
▁change	-1088
▁gl	-1089
▁yöu	-1090
▁door	-1091
▁ret	-1092
dd	-1093
▁worry	-1094
▁while	-1095
▁Move	-1096
▁sleep	-1097
▁resp	-1098
hind	-1099
▁conf	-1100
to	-1101
actly	-1102
▁compl	-1103
▁says	-1104
rol	-1105
▁Like	-1106
▁With	-1107
▁Dr	-1108
▁case	-1109
▁Sc	-1110
lt	-1111
ching	-1112
▁wants	-1113
ered	-1114
▁means	-1115
▁power	-1116
▁exp	-1117
az	-1118
▁month	-1119
▁tomorrow	-1120
▁myself	-1121
cept	-1122
▁until	-1123
▁break	-1124
▁Of	-1125
▁shot	-1126
▁Pro	-1127
▁haven	-1128
app	-1129
lic	-1130
▁close	-1131
▁Nothing	-1132
ison	-1133
als	-1134
▁Gu	-1135
▁Z	-1136
▁alive	-1137
▁point	-1138
▁happy	-1139
▁Bl	-1140
ding	-1141
▁working	-1142
iet	-1143
omb	-1144
ton	-1145
ush	-1146
▁bro	-1147
▁Sp	-1148
come	-1149
▁Sha	-1150
igure	-1151
unt	-1152
▁couldn	-1153
▁cut	-1154
▁beaut	-1155
ete	-1156
▁ev	-1157
▁Ab	-1158
▁imp	-1159
▁speak	-1160
its	-1161
anger	-1162
▁expl	-1163
▁poss	-1164
▁taking	-1165
ved	-1166
▁Me	-1167
ither	-1168
▁behind	-1169
ged	-1170
▁read	-1171
▁minute	-1172
▁supposed	-1173
▁since	-1174
▁spec	-1175
cuse	-1176
▁cor	-1177
▁truth	-1178
amp	-1179
▁hat	-1180
▁asked	-1181
any	-1182
▁Gr	-1183
head	-1184
▁pretty	-1185
ably	-1186
▁answ	-1187
▁chance	-1188
▁cou	-1189
son	-1190
▁its	-1191
▁Com	-1192
▁actually	-1193
▁thinking	-1194
▁late	-1195
ets	-1196
▁inst	-1197
▁five	-1198
▁def	-1199
▁inc	-1200
▁hope	-1201
vers	-1202
▁jo	-1203
cy	-1204
▁!	-1205
ates	-1206
▁luck	-1207
▁shoot	-1208
▁Ar	-1209
▁pick	-1210
ross	-1211
att	-1212
▁clear	-1213
▁light	-1214
▁Thanks	-1215
▁business	-1216
not	-1217
ung	-1218
▁send	-1219
▁wind	-1220
▁inter	-1221
▁10	-1222
ents	-1223
▁Se	-1224
▁sk	-1225
▁Mar	-1226
▁number	-1227
▁cop	-1228
und	-1229
▁dream	-1230
▁Cha	-1231
ames	-1232
iful	-1233
vent	-1234
ork	-1235
▁His	-1236
▁side	-1237
led	-1238
ole	-1239
ai	-1240
▁Keep	-1241
▁hours	-1242
▁Hold	-1243
ane	-1244
ards	-1245
▁watch	-1246
▁Le	-1247
▁huh	-1248
onight	-1249
▁sound	-1250
▁true	-1251
ised	-1252
▁tou	-1253
ump	-1254
gr	-1255
▁mur	-1256
▁dest	-1257
eed	-1258
▁Tr	-1259
▁Help	-1260
▁body	-1261
▁woman	-1262
▁drink	-1263
ery	-1264
▁build	-1265
▁sent	-1266
▁lead	-1267
▁train	-1268
pr	-1269
▁char	-1270
arent	-1271
▁question	-1272
▁different	-1273
ned	-1274
▁exactly	-1275
lcome	-1276
▁each	-1277
▁four	-1278
▁crazy	-1279
stem	-1280
chool	-1281
▁New	-1282
more	-1283
▁death	-1284
▁team	-1285
aptain	-1286
▁reason	-1287
▁mill	-1288
▁protect	-1289
▁least	-1290
▁book	-1291
▁fall	-1292
▁file	-1293
▁yours	-1294
▁pull	-1295
ering	-1296
io	-1297
bably	-1298
iate	-1299
▁Got	-1300
▁telling	-1301
▁These	-1302
du	-1303
ual	-1304
▁Mic	-1305
▁Man	-1306
rought	-1307
▁Say	-1308
▁det	-1309
▁Pr	-1310
▁Che	-1311
▁mine	-1312
▁kids	-1313
ween	-1314
ines	-1315
▁mist	-1316
▁air	-1317
ction	-1318
▁inv	-1319
▁ob	-1320
▁Our	-1321
erest	-1322
▁med	-1323
▁waiting	-1324
▁full	-1325
▁beautiful	-1326
▁wh	-1327
ange	-1328
▁later	-1329
▁high	-1330
▁eat	-1331
▁story	-1332
aken	-1333
▁gen	-1334
▁died	-1335
▁free	-1336
▁pain	-1337
urity	-1338
▁game	-1339
▁makes	-1340
▁Fr	-1341
▁stuff	-1342
ya	-1343
▁vis	-1344
▁Sam	-1345
▁tri	-1346
▁trans	-1347
▁figure	-1348
outh	-1349
▁hon	-1350
▁brought	-1351
ute	-1352
fect	-1353
▁times	-1354
the	-1355
ital	-1356
▁bra	-1357
▁school	-1358
▁wish	-1359
ana	-1360
▁ap	-1361
▁mem	-1362
▁cons	-1363
▁pat	-1364
▁lear	-1365
▁beg	-1366
▁making	-1367
inc	-1368
▁add	-1369
▁fore	-1370
▁sweet	-1371
▁started	-1372
▁coll	-1373
by	-1374
ault	-1375
ode	-1376
▁tonight	-1377
ift	-1378
▁Har	-1379
▁Qu	-1380
hael	-1381
▁leg	-1382
ired	-1383
▁hot	-1384
▁win	-1385
▁comes	-1386
▁inform	-1387
▁import	-1388
▁become	-1389
▁ain	-1390
▁between	-1391
▁island	-1392
esc	-1393
ma	-1394
▁looks	-1395
ield	-1396
me	-1397
unch	-1398
▁food	-1399
▁gets	-1400
idd	-1401
▁city	-1402
ica	-1403
▁trou	-1404
▁6	-1405
▁ri	-1406
▁Rem	-1407
▁grand	-1408
▁control	-1409
ER	-1410
▁moment	-1411
▁attack	-1412
▁aw	-1413
lo	-1414
▁ext	-1415
▁secret	-1416
ited	-1417
▁scared	-1418
▁against	-1419
▁Excuse	-1420
▁forg	-1421
▁Charl	-1422
▁system	-1423
▁running	-1424
vice	-1425
▁dire	-1426
▁forget	-1427
▁disc	-1428
▁wond	-1429
ph	-1430
most	-1431
uss	-1432
▁cur	-1433
ling	-1434
▁easy	-1435
▁pres	-1436
ention	-1437
▁front	-1438
band	-1439
▁del	-1440
▁dog	-1441
▁having	-1442
▁outside	-1443
000	-1444
▁months	-1445
▁able	-1446
▁TH	-1447
iously	-1448
▁asking	-1449
sh	-1450
▁human	-1451
hip	-1452
▁Stay	-1453
era	-1454
▁land	-1455
▁line	-1456
▁Ind	-1457
▁fast	-1458
▁Michael	-1459
oot	-1460
▁anymore	-1461
▁married	-1462
▁danger	-1463
▁Ne	-1464
▁Even	-1465
▁tried	-1466
ale	-1467
▁half	-1468
▁entire	-1469
osp	-1470
▁lock	-1471
▁important	-1472
▁sub	-1473
▁Two	-1474
▁news	-1475
▁cannot	-1476
▁Does	-1477
▁law	-1478
fra	-1479
▁ste	-1480
▁Which	-1481
▁whatever	-1482
aring	-1483
▁promise	-1484
▁interest	-1485
ows	-1486
usband	-1487
▁Clark	-1488
▁dra	-1489
▁key	-1490
arly	-1491
vie	-1492
▁dep	-1493
▁pri	-1494
ces	-1495
▁sn	-1496
IN	-1497
▁Shut	-1498
▁report	-1499
▁dist	-1500
▁After	-1501
▁needs	-1502
▁husband	-1503
▁sing	-1504
▁aren	-1505
AN	-1506
▁Pe	-1507
erg	-1508
olog	-1509
▁Amer	-1510
reet	-1511
▁ins	-1512
iec	-1513
▁pap	-1514
oose	-1515
▁lives	-1516
▁six	-1517
▁bomb	-1518
▁town	-1519
OU	-1520
sel	-1521
▁Pre	-1522
▁sim	-1523
ility	-1524
▁young	-1525
itting	-1526
▁Everything	-1527
ror	-1528
▁Only	-1529
▁ahead	-1530
▁fix	-1531
fraid	-1532
▁girls	-1533
alm	-1534
reen	-1535
▁fact	-1536
▁touch	-1537
▁lose	-1538
▁bed	-1539
▁party	-1540
ys	-1541
▁ve	-1542
▁Put	-1543
▁En	-1544
ages	-1545
eral	-1546
▁Tom	-1547
▁goes	-1548
▁20	-1549
▁loc	-1550
▁eng	-1551
▁Fuck	-1552
ne	-1553
ced	-1554
▁probably	-1555
ief	-1556
ched	-1557
▁di	-1558
▁Lord	-1559
▁test	-1560
▁wall	-1561
ward	-1562
▁quite	-1563
aid	-1564
unk	-1565
▁Ag	-1566
ots	-1567
▁damn	-1568
▁black	-1569
▁return	-1570
▁taken	-1571
lex	-1572
▁surv	-1573
▁leaving	-1574
br	-1575
▁May	-1576
▁offic	-1577
ative	-1578
▁Em	-1579
ert	-1580
▁small	-1581
▁afraid	-1582
▁track	-1583
▁Ben	-1584
▁hey	-1585
ney	-1586
ator	-1587
▁reg	-1588
ote	-1589
▁Sure	-1590
▁esc	-1591
▁mad	-1592
▁7	-1593
iving	-1594
▁bull	-1595
▁Pl	-1596
▁weap	-1597
▁answer	-1598
men	-1599
ster	-1600
ics	-1601
▁Wow	-1602
▁bar	-1603
▁trouble	-1604
▁plane	-1605
ined	-1606
▁Con	-1607
idence	-1608
▁million	-1609
▁Would	-1610
▁possible	-1611
ham	-1612
▁bag	-1613
▁past	-1614
ony	-1615
ilt	-1616
upid	-1617
umb	-1618
▁Act	-1619
ape	-1620
ific	-1621
ene	-1622
▁Sw	-1623
▁mistake	-1624
▁security	-1625
arth	-1626
▁Captain	-1627
ures	-1628
▁Shit	-1629
▁parent	-1630
▁office	-1631
ler	-1632
▁clean	-1633
▁country	-1634
▁happening	-1635
irth	-1636
▁fell	-1637
▁king	-1638
▁order	-1639
itch	-1640
AR	-1641
▁Per	-1642
rence	-1643
▁Open	-1644
▁Her	-1645
▁gra	-1646
▁ship	-1647
▁doctor	-1648
▁company	-1649
.'	-1650
▁expect	-1651
ospital	-1652
roy	-1653
▁dou	-1654
▁shut	-1655
▁catch	-1656
oor	-1657
▁boat	-1658
▁feeling	-1659
iver	-1660
▁breat	-1661
▁couple	-1662
▁lie	-1663
▁happens	-1664
▁ind	-1665
▁pos	-1666
▁Miss	-1667
▁step	-1668
fer	-1669
spect	-1670
uc	-1671
▁Brother	-1672
ina	-1673
▁Nice	-1674
inal	-1675
▁By	-1676
cer	-1677
rist	-1678
pping	-1679
bo	-1680
ama	-1681
▁along	-1682
alt	-1683
▁fav	-1684
▁seems	-1685
▁Charlie	-1686
▁special	-1687
ract	-1688
▁less	-1689
▁quick	-1690
▁cool	-1691
▁Ah	-1692
▁tw	-1693
ized	-1694
▁god	-1695
▁eye	-1696
▁almost	-1697
gram	-1698
▁Was	-1699
▁Whoa	-1700
ule	-1701
eter	-1702
ience	-1703
▁Could	-1704
▁fly	-1705
...?	-1706
▁piec	-1707
riage	-1708
oke	-1709
▁vill	-1710
▁First	-1711
▁parents	-1712
▁Wh	-1713
ones	-1714
▁Lea	-1715
▁bud	-1716
▁cell	-1717
entle	-1718
▁boss	-1719
▁form	-1720
▁complete	-1721
▁mark	-1722
▁From	-1723
▁clos	-1724
▁Great	-1725
ept	-1726
ished	-1727
▁birth	-1728
The	-1729
▁Te	-1730
ully	-1731
▁Bye	-1732
▁dear	-1733
▁rep	-1734
▁hospital	-1735
▁choice	-1736
▁calling	-1737
▁information	-1738
you	-1739
▁hero	-1740
▁ord	-1741
▁moving	-1742
▁strong	-1743
▁Something	-1744
edding	-1745
▁sick	-1746
▁fool	-1747
▁bitch	-1748
▁mag	-1749
▁beat	-1750
ertain	-1751
reed	-1752
▁sear	-1753
▁explain	-1754
enny	-1755
▁stud	-1756
▁9	-1757
▁others	-1758
ok	-1759
ically	-1760
▁either	-1761
bers	-1762
▁drive	-1763
▁fail	-1764
▁somebody	-1765
ask	-1766
ities	-1767
▁pict	-1768
▁12	-1769
room	-1770
ometimes	-1771
▁ground	-1772
▁boys	-1773
nect	-1774
▁foot	-1775
▁himself	-1776
▁stupid	-1777
▁fut	-1778
▁ris	-1779
sy	-1780
selves	-1781
▁window	-1782
▁till	-1783
▁col	-1784
▁class	-1785
▁perfect	-1786
▁stra	-1787
▁hate	-1788
ption	-1789
▁though	-1790
▁din	-1791
aire	-1792
▁red	-1793
▁everybody	-1794
▁top	-1795
▁Everyone	-1796
leas	-1797
▁shouldn	-1798
▁Call	-1799
▁exper	-1800
ead	-1801
▁tem	-1802
▁Hur	-1803
▁saved	-1804
▁cap	-1805
▁rob	-1806
▁Very	-1807
ues	-1808
▁Ro	-1809
artment	-1810
▁Su	-1811
▁prof	-1812
aste	-1813
▁rad	-1814
arget	-1815
▁requ	-1816
▁station	-1817
You	-1818
▁Um	-1819
iding	-1820
▁Show	-1821
▁8	-1822
ided	-1823
▁Welcome	-1824
cc	-1825
▁future	-1826
"?	-1827
▁list	-1828
▁marriage	-1829
▁funny	-1830
▁wonder	-1831
irt	-1832
▁cam	-1833
▁hang	-1834
▁given	-1835
vi	-1836
▁.	-1837
▁weeks	-1838
▁worth	-1839
,000	-1840
▁short	-1841
ency	-1842
sing	-1843
vern	-1844
▁buy	-1845
▁creat	-1846
▁pack	-1847
▁Christ	-1848
▁15	-1849
▁Someone	-1850
▁box	-1851
▁surpr	-1852
▁living	-1853
▁building	-1854
ider	-1855
▁children	-1856
▁exc	-1857
▁road	-1858
▁caught	-1859
▁record	-1860
▁destroy	-1861
▁dark	-1862
uation	-1863
ants	-1864
▁oper	-1865
▁cover	-1866
kes	-1867
rie	-1868
▁ty	-1869
hose	-1870
▁Run	-1871
▁phot	-1872
oon	-1873
▁sto	-1874
▁Ser	-1875
ision	-1876
▁Make	-1877
▁People	-1878
▁Bar	-1879
▁proper	-1880
vest	-1881
▁sense	-1882
ric	-1883
aces	-1884
iot	-1885
▁seem	-1886
▁contact	-1887
▁Sm	-1888
▁meant	-1889
▁El	-1890
▁sort	-1891
ges	-1892
ging	-1893
?"	-1894
▁uncle	-1895
fic	-1896
▁disapp	-1897
▁message	-1898
ution	-1899
▁needed	-1900
▁Alex	-1901
▁serious	-1902
mp	-1903
▁Fl	-1904
▁Ste	-1905
de	-1906
▁direct	-1907
ters	-1908
▁shall	-1909
▁rock	-1910
▁press	-1911
bt	-1912
▁bank	-1913
▁changed	-1914
ten	-1915
ille	-1916
elt	-1917
▁Hmm	-1918
ides	-1919
▁playing	-1920
▁Ma	-1921
▁par	-1922
▁accident	-1923
rap	-1924
orth	-1925
▁Never	-1926
....	-1927
miss	-1928
▁murder	-1929
▁Nobody	-1930
▁prison	-1931
▁Fine	-1932
▁command	-1933
▁respect	-1934
go	-1935
▁sol	-1936
▁meeting	-1937
▁sun	-1938
▁Back	-1939
▁works	-1940
▁Whatever	-1941
▁questions	-1942
nel	-1943
ified	-1944
▁learn	-1945
▁bur	-1946
ffect	-1947
mand	-1948
▁Aar	-1949
law	-1950
ley	-1951
▁sold	-1952
▁fil	-1953
▁val	-1954
tern	-1955
ular	-1956
▁dangerous	-1957
sol	-1958
▁whe	-1959
oul	-1960
▁Those	-1961
uthor	-1962
▁allow	-1963
ze	-1964
now	-1965
oof	-1966
▁Jes	-1967
▁mil	-1968
▁Leave	-1969
▁buddy	-1970
▁words	-1971
▁missing	-1972
▁Sar	-1973
▁Del	-1974
▁Over	-1975
uring	-1976
▁using	-1977
▁ma	-1978
▁%1	-1979
▁Car	-1980
▁drop	-1981
▁watching	-1982
▁somewhere	-1983
yer	-1984
ches	-1985
over	-1986
▁ten	-1987
▁ball	-1988
▁risk	-1989
▁known	-1990
▁anywhere	-1991
▁pur	-1992
▁giving	-1993
▁Huh	-1994
▁Sing	-1995
joy	-1996
rat	-1997
rying	-1998
▁bird	-1999
▁fear	-2000
iddle	-2001
bye	-2002
▁fault	-2003
▁Eng	-2004
▁Father	-2005
▁ones	-2006
▁gentle	-2007
fort	-2008
▁feet	-2009
fully	-2010
airs	-2011
▁certain	-2012
▁Col	-2013
▁gift	-2014
▁slow	-2015
▁longer	-2016
ari	-2017
▁Mrs	-2018
read	-2019
▁throw	-2020
▁worked	-2021
▁project	-2022
▁survive	-2023
▁z	-2024
lock	-2025
▁favor	-2026
haps	-2027
▁kept	-2028
▁super	-2029
▁target	-2030
▁Gen	-2031
▁code	-2032
▁arrest	-2033
▁Actually	-2034
eth	-2035
▁blow	-2036
▁hair	-2037
undred	-2038
▁seeing	-2039
▁anybody	-2040
▁ran	-2041
itor	-2042
▁Mon	-2043
▁imag	-2044
▁Watch	-2045
▁steal	-2046
▁straight	-2047
iny	-2048
amed	-2049
▁Three	-2050
▁near	-2051
▁YOU	-2052
illy	-2053
▁enem	-2054
ume	-2055
▁mod	-2056
▁Frank	-2057
▁dress	-2058
▁arri	-2059
▁begin	-2060
▁lying	-2061
ich	-2062
▁Damn	-2063
rect	-2064
ession	-2065
▁anyway	-2066
▁handle	-2067
▁ang	-2068
iting	-2069
▁state	-2070
▁stick	-2071
▁careful	-2072
▁um	-2073
▁Ram	-2074
ments	-2075
▁cook	-2076
▁piece	-2077
▁accept	-2078
that	-2079
▁Sim	-2080
▁dro	-2081
▁Bell	-2082
▁quiet	-2083
ooper	-2084
▁Chan	-2085
solute	-2086
▁30	-2087
▁King	-2088
▁kiss	-2089
▁connect	-2090
▁Raj	-2091
▁Looks	-2092
▁support	-2093
AT	-2094
nie	-2095
▁19	-2096
▁takes	-2097
ational	-2098
▁program	-2099
gan	-2100
▁thanks	-2101
ffee	-2102
▁threat	-2103
▁Sy	-2104
▁THE	-2105
▁art	-2106
mit	-2107
ffic	-2108
▁Sec	-2109
▁sell	-2110
LL	-2111
ries	-2112
▁lady	-2113
bed	-2114
aur	-2115
▁Ha	-2116
roup	-2117
▁App	-2118
ounds	-2119
ublic	-2120
▁cross	-2121
▁weren	-2122
▁worried	-2123
▁felt	-2124
▁Claire	-2125
ugg	-2126
▁weapon	-2127
▁wedding	-2128
▁]	-2129
▁Red	-2130
ured	-2131
▁hor	-2132
▁invest	-2133
▁turned	-2134
▁Didn	-2135
▁mach	-2136
▁loved	-2137
▁Kate	-2138
▁vict	-2139
▁birthday	-2140
▁Dan	-2141
▁address	-2142
▁grow	-2143
ousand	-2144
▁Think	-2145
▁marry	-2146
▁evidence	-2147
▁cent	-2148
▁Daddy	-2149
▁gold	-2150
▁files	-2151
▁belong	-2152
ature	-2153
▁deep	-2154
▁finish	-2155
▁hundred	-2156
▁burn	-2157
▁dinner	-2158
▁govern	-2159
▁dance	-2160
▁peace	-2161
▁Mart	-2162
▁Mike	-2163
▁Pres	-2164
▁seat	-2165
ali	-2166
▁respons	-2167
▁ce	-2168
king	-2169
oint	-2170
▁Alright	-2171
▁treat	-2172
viously	-2173
▁finally	-2174
▁seconds	-2175
key	-2176
▁honey	-2177
▁smart	-2178
ists	-2179
▁ref	-2180
▁Jesus	-2181
▁adv	-2182
▁born	-2183
▁position	-2184
▁ed	-2185
ears	-2186
▁Loc	-2187
▁Pap	-2188
▁spend	-2189
isc	-2190
rec	-2191
work	-2192
▁smell	-2193
▁personal	-2194
ON	-2195
▁norm	-2196
hal	-2197
oun	-2198
ager	-2199
owers	-2200
▁kick	-2201
▁Mother	-2202
▁flight	-2203
▁Out	-2204
inite	-2205
▁camp	-2206
▁remain	-2207
▁Remember	-2208
▁lau	-2209
▁hide	-2210
▁tre	-2211
▁anim	-2212
What	-2213
ories	-2214
▁av	-2215
view	-2216
▁date	-2217
▁Check	-2218
ING	-2219
acy	-2220
▁Ph	-2221
used	-2222
▁hop	-2223
▁single	-2224
▁killing	-2225
ser	-2226
▁truck	-2227
bit	-2228
▁mus	-2229
▁host	-2230
▁Should	-2231
ken	-2232
▁Son	-2233
▁village	-2234
▁thousand	-2235
▁lucky	-2236
▁weird	-2237
solutely	-2238
▁stopped	-2239
▁comput	-2240
▁cond	-2241
▁kidding	-2242
azing	-2243
▁Grand	-2244
uty	-2245
▁Find	-2246
▁cost	-2247
▁level	-2248
▁Everybody	-2249
▁dare	-2250
ective	-2251
▁picture	-2252
▁Once	-2253
ius	-2254
▁forever	-2255
▁Sit	-2256
▁conv	-2257
▁dude	-2258
cum	-2259
ules	-2260
▁opp	-2261
irm	-2262
▁Turn	-2263
▁drug	-2264
▁hist	-2265
▁star	-2266
▁broke	-2267
▁coffee	-2268
▁tot	-2269
▁Kill	-2270
▁Time	-2271
▁wake	-2272
terday	-2273
adies	-2274
▁terri	-2275
▁Really	-2276
▁missed	-2277
▁100	-2278
RE	-2279
▁join	-2280
▁welcome	-2281
▁dam	-2282
cause	-2283
▁across	-2284
▁contin	-2285
▁vo	-2286
aged	-2287
uts	-2288
▁Ed	-2289
▁Cle	-2290
▁Love	-2291
▁ident	-2292
▁Americ	-2293
ks	-2294
pa	-2295
▁mouth	-2296
▁Bet	-2297
▁mis	-2298
▁suit	-2299
mediate	-2300
▁mission	-2301
IT	-2302
▁tick	-2303
▁share	-2304
▁main	-2305
▁decided	-2306
▁base	-2307
▁appro	-2308
ossible	-2309
we	-2310
▁rid	-2311
▁field	-2312
▁Mad	-2313
▁bat	-2314
Cause	-2315
▁signal	-2316
▁fair	-2317
▁doubt	-2318
▁Mm	-2319
eor	-2320
ify	-2321
▁Pri	-2322
ately	-2323
▁immediate	-2324
ray	-2325
une	-2326
▁prep	-2327
que	-2328
▁Bob	-2329
▁Max	-2330
▁fill	-2331
mission	-2332
▁nobody	-2333
▁situation	-2334
vin	-2335
▁Lex	-2336
▁jump	-2337
ices	-2338
▁tor	-2339
▁Des	-2340
▁About	-2341
bar	-2342
line	-2343
pper	-2344
▁bott	-2345
▁wear	-2346
▁standing	-2347
ently	-2348
▁floor	-2349
▁middle	-2350
▁select	-2351
ached	-2352
▁government	-2353
▁Isn	-2354
▁white	-2355
bs	-2356
echn	-2357
▁within	-2358
top	-2359
▁Aaron	-2360
▁looked	-2361
initely	-2362
avy	-2363
▁elect	-2364
lin	-2365
ron	-2366
▁50	-2367
▁Tod	-2368
▁lab	-2369
▁post	-2370
▁priv	-2371
atur	-2372
▁Uncle	-2373
▁sounds	-2374
▁ride	-2375
▁paper	-2376
▁sitting	-2377
gu	-2378
ogn	-2379
cell	-2380
▁Cont	-2381
▁thinks	-2382
'.	-2383
mon	-2384
▁Min	-2385
oh	-2386
ior	-2387
ris	-2388
▁squ	-2389
▁court	-2390
▁eight	-2391
▁President	-2392
roud	-2393
▁area	-2394
▁instead	-2395
▁stri	-2396
ata	-2397
ili	-2398
ming	-2399
▁aut	-2400
ountain	-2401
ral	-2402
▁inf	-2403
▁Guys	-2404
▁fish	-2405
▁honor	-2406
▁brain	-2407
▁Bo	-2408
▁Other	-2409
▁built	-2410
cri	-2411
lish	-2412
▁reach	-2413
▁escape	-2414
▁ow	-2415
▁clot	-2416
▁cat	-2417
▁access	-2418
▁engine	-2419
ades	-2420
▁Sayid	-2421
▁planet	-2422
▁ble	-2423
▁cir	-2424
▁iss	-2425
▁rece	-2426
▁crash	-2427
▁invol	-2428
reate	-2429
ially	-2430
▁calm	-2431
▁arm	-2432
▁onto	-2433
▁computer	-2434
▁cops	-2435
▁hasn	-2436
hel	-2437
▁search	-2438
▁Bab	-2439
▁account	-2440
ggest	-2441
ource	-2442
▁seven	-2443
▁suggest	-2444
▁suspect	-2445
▁following	-2446
▁difference	-2447
ulations	-2448
▁cold	-2449
▁fing	-2450
elf	-2451
sed	-2452
▁evening	-2453
▁ele	-2454
night	-2455
▁busy	-2456
▁space	-2457
iant	-2458
▁angry	-2459
▁worse	-2460
ES	-2461
cent	-2462
▁calls	-2463
▁enjoy	-2464
ination	-2465
▁apolog	-2466
ov	-2467
▁inn	-2468
▁glad	-2469
▁pleas	-2470
▁simple	-2471
▁/	-2472
▁present	-2473
AS	-2474
oud	-2475
▁er	-2476
ails	-2477
▁idiot	-2478
▁offer	-2479
▁history	-2480
:00	-2481
▁ir	-2482
onds	-2483
▁guns	-2484
▁soul	-2485
iew	-2486
▁Wat	-2487
▁teac	-2488
▁crime	-2489
▁gentlemen	-2490
▁Try	-2491
▁Happ	-2492
▁memory	-2493
▁street	-2494
".	-2495
cl	-2496
tle	-2497
▁miles	-2498
▁swear	-2499
He	-2500
itary	-2501
idge	-2502
▁Bring	-2503
▁apprec	-2504
ked	-2505
uri	-2506
▁Ad	-2507
▁proud	-2508
▁diffic	-2509
EN	-2510
▁Mmm	-2511
▁ear	-2512
ongrat	-2513
ky	-2514
fet	-2515
▁Pol	-2516
▁eas	-2517
▁tight	-2518
▁locked	-2519
▁terror	-2520
▁alright	-2521
ts	-2522
▁ya	-2523
angu	-2524
time	-2525
▁Vict	-2526
▁amazing	-2527
yle	-2528
▁equ	-2529
▁Papa	-2530
overed	-2531
▁travel	-2532
▁victim	-2533
▁Charles	-2534
▁Dev	-2535
▁bear	-2536
▁correct	-2537
ja	-2538
but	-2539
▁lim	-2540
▁mot	-2541
cious	-2542
▁prop	-2543
▁magic	-2544
▁broken	-2545
els	-2546
▁age	-2547
▁bre	-2548
attle	-2549
▁rain	-2550
▁India	-2551
▁current	-2552
erve	-2553
rill	-2554
▁board	-2555
▁cas	-2556
▁early	-2557
▁women	-2558
▁recogn	-2559
▁forward	-2560
of	-2561
▁Par	-2562
▁army	-2563
▁hung	-2564
▁Saw	-2565
▁dev	-2566
▁Dude	-2567
▁Jenny	-2568
aced	-2569
▁bas	-2570
▁pop	-2571
hol	-2572
▁low	-2573
▁York	-2574
▁club	-2575
▁path	-2576
▁completely	-2577
▁beha	-2578
▁park	-2579
▁Today	-2580
irty	-2581
▁exam	-2582
tt	-2583
▁card	-2584
▁visit	-2585
▁tree	-2586
▁Earth	-2587
▁Peter	-2588
▁America	-2589
▁Mor	-2590
▁jud	-2591
▁Lana	-2592
▁radio	-2593
▁orders	-2594
ern	-2595
▁San	-2596
itive	-2597
▁draw	-2598
▁paid	-2599
▁chick	-2600
▁honest	-2601
▁rather	-2602
▁talked	-2603
how	-2604
▁ru	-2605
▁bill	-2606
,"	-2607
▁ice	-2608
▁Save	-2609
▁button	-2610
▁plug	-2611
▁group	-2612
▁commun	-2613
▁remove	-2614
▁Ho	-2615
wise	-2616
▁murd	-2617
▁strange	-2618
▁yesterday	-2619
▁Cop	-2620
▁Dav	-2621
▁spent	-2622
ses	-2623
▁pal	-2624
▁Last	-2625
▁event	-2626
▁gener	-2627
▁match	-2628
▁Pat	-2629
▁ring	-2630
▁text	-2631
▁Locke	-2632
▁teach	-2633
▁Master	-2634
▁hearts	-2635
▁impossible	-2636
OM	-2637
▁Im	-2638
▁Mark	-2639
▁neck	-2640
▁hotel	-2641
▁voice	-2642
▁machine	-2643
▁Ow	-2644
▁James	-2645
▁immediately	-2646
▁Ms	-2647
▁Maj	-2648
▁van	-2649
▁public	-2650
▁numbers	-2651
itness	-2652
▁Miles	-2653
aff	-2654
▁sal	-2655
▁sat	-2656
▁More	-2657
▁forgive	-2658
'?	-2659
▁Er	-2660
▁Agent	-2661
▁closed	-2662
▁normal	-2663
▁patient	-2664
▁200	-2665
▁Hurry	-2666
▁Since	-2667
▁block	-2668
com	-2669
▁clothes	-2670
iam	-2671
ored	-2672
▁kidna	-2673
▁vi	-2674
▁cow	-2675
▁roll	-2676
▁Happy	-2677
▁forgot	-2678
ege	-2679
hole	-2680
range	-2681
▁exist	-2682
ury	-2683
roll	-2684
ended	-2685
▁diam	-2686
▁load	-2687
▁Trust	-2688
▁stuck	-2689
▁Command	-2690
0.	-2691
▁quickly	-2692
▁oh	-2693
hard	-2694
▁Jake	-2695
▁feed	-2696
▁Joe	-2697
▁carry	-2698
▁Cooper	-2699
▁officer	-2700
▁difficult	-2701
▁Ok	-2702
▁occ	-2703
▁mention	-2704
▁request	-2705
DE	-2706
uel	-2707
▁Gl	-2708
▁la	-2709
host	-2710
▁enemy	-2711
▁movie	-2712
▁design	-2713
atic	-2714
▁vide	-2715
▁innoc	-2716
▁closer	-2717
gth	-2718
▁cust	-2719
▁race	-2720
zz	-2721
set	-2722
ball	-2723
▁pen	-2724
▁self	-2725
▁dying	-2726
ibility	-2727
▁fighting	-2728
▁investig	-2729
▁Ke	-2730
▁doll	-2731
▁song	-2732
▁named	-2733
light	-2734
▁rules	-2735
▁process	-2736
BI	-2737
ians	-2738
▁Jul	-2739
friend	-2740
▁prove	-2741
▁Shall	-2742
▁blue	-2743
▁weak	-2744
arling	-2745
▁write	-2746
▁camera	-2747
aim	-2748
▁ok	-2749
▁dig	-2750
▁hun	-2751
▁sad	-2752
▁Russ	-2753
▁Before	-2754
▁choose	-2755
▁sometimes	-2756
▁cash	-2757
▁wearing	-2758
rab	-2759
enty	-2760
just	-2761
▁type	-2762
incess	-2763
▁Ready	-2764
ergency	-2765
ala	-2766
par	-2767
▁11	-2768
▁Ra	-2769
▁Ter	-2770
▁sea	-2771
▁laugh	-2772
cha	-2773
oop	-2774
▁Has	-2775
▁Rel	-2776
▁Black	-2777
▁agree	-2778
▁charge	-2779
▁master	-2780
▁location	-2781
mes	-2782
▁Fred	-2783
▁Next	-2784
▁stole	-2785
▁Somebody	-2786
iter	-2787
▁pray	-2788
▁shar	-2789
uk	-2790
duct	-2791
▁Hang	-2792
▁agent	-2793
▁earth	-2794
▁dreams	-2795
▁contain	-2796
No	-2797
gue	-2798
▁Sun	-2799
▁sex	-2800
▁Easy	-2801
▁grab	-2802
▁wood	-2803
▁David	-2804
▁Harry	-2805
▁force	-2806
OR	-2807
hys	-2808
ien	-2809
pty	-2810
val	-2811
▁sil	-2812
▁fur	-2813
▁Walt	-2814
▁jail	-2815
▁summ	-2816
▁beach	-2817
▁killer	-2818
IC	-2819
for	-2820
heart	-2821
▁whoa	-2822
▁Perhaps	-2823
icks	-2824
bor	-2825
▁lar	-2826
▁suc	-2827
under	-2828
▁attention	-2829
▁rout	-2830
▁yöur	-2831
▁blind	-2832
▁remind	-2833
▁impress	-2834
▁realize	-2835
che	-2836
play	-2837
▁Geor	-2838
▁crim	-2839
▁gang	-2840
▁table	-2841
▁hiding	-2842
ald	-2843
ini	-2844
▁resc	-2845
▁mir	-2846
▁Khan	-2847
▁keys	-2848
ground	-2849
▁decision	-2850
▁listening	-2851
hmm	-2852
rog	-2853
▁Five	-2854
▁music	-2855
▁techn	-2856
▁concer	-2857
▁service	-2858
▁suppose	-2859
▁walking	-2860
ran	-2861
▁tur	-2862
▁extra	-2863
▁scene	-2864
ex	-2865
▁pot	-2866
velop	-2867
▁guest	-2868
uge	-2869
▁TV	-2870
irlf	-2871
▁Carl	-2872
irlfriend	-2873
▁Sho	-2874
▁lay	-2875
nable	-2876
▁High	-2877
▁heading	-2878
▁relations	-2879
▁Up	-2880
▁Hol	-2881
▁Anything	-2882
▁definitely	-2883
min	-2884
resh	-2885
▁Det	-2886
▁fre	-2887
▁helping	-2888
▁interested	-2889
▁ann	-2890
▁pun	-2891
▁Step	-2892
▁hole	-2893
▁jack	-2894
▁loves	-2895
▁promised	-2896
rupt	-2897
ondon	-2898
▁Fire	-2899
▁Watson	-2900
▁college	-2901
▁imagine	-2902
▁whether	-2903
icul	-2904
▁General	-2905
▁none	-2906
▁activ	-2907
▁breath	-2908
▁client	-2909
▁div	-2910
ending	-2911
stairs	-2912
▁glass	-2913
▁hurry	-2914
▁bother	-2915
ring	-2916
▁nine	-2917
▁London	-2918
▁appreciate	-2919
bert	-2920
▁fac	-2921
essor	-2922
itted	-2923
▁sword	-2924
▁effect	-2925
▁Sometimes	-2926
ese	-2927
▁Ty	-2928
what	-2929
▁Ren	-2930
▁became	-2931
erc	-2932
ocus	-2933
▁sac	-2934
▁bath	-2935
▁holding	-2936
!"	-2937
▁Bu	-2938
▁Use	-2939
▁Forget	-2940
sc	-2941
eer	-2942
por	-2943
..."	-2944
▁Mur	-2945
▁clim	-2946
▁Co	-2947
▁mate	-2948
▁poor	-2949
▁prov	-2950
▁innocent	-2951
▁Mc	-2952
▁Tw	-2953
ploy	-2954
ongratulations	-2955
▁Rob	-2956
▁lied	-2957
vert	-2958
▁FBI	-2959
▁names	-2960
▁sight	-2961
sen	-2962
▁Ev	-2963
▁ur	-2964
shit	-2965
▁Big	-2966
▁Prof	-2967
▁evil	-2968
▁driving	-2969
empt	-2970
▁cry	-2971
▁Want	-2972
▁jung	-2973
▁Victor	-2974
▁bullet	-2975
▁problems	-2976
arm	-2977
ram	-2978
▁Rog	-2979
board	-2980
▁Baby	-2981
▁figured	-2982
▁receive	-2983
ats	-2984
▁13	-2985
▁Lu	-2986
inary	-2987
▁push	-2988
▁Honey	-2989
▁third	-2990
▁American	-2991
▁owe	-2992
▁crew	-2993
▁viol	-2994
▁speed	-2995
li	-2996
▁AN	-2997
▁aff	-2998
▁Little	-2999
▁Hen	-3000
anguage	-3001
▁everywhere	-3002
▁girlfriend	-3003
kn	-3004
mb	-3005
no	-3006
▁lt	-3007
ires	-3008
▁Ger	-3009
▁Under	-3010
▁English	-3011
▁discuss	-3012
We	-3013
▁Rs	-3014
ville	-3015
▁cars	-3016
▁vehic	-3017
▁hungry	-3018
add	-3019
▁Zo	-3020
dom	-3021
▁Still	-3022
▁tired	-3023
▁video	-3024
▁jungle	-3025
IA	-3026
tery	-3027
▁25	-3028
cean	-3029
load	-3030
icated	-3031
▁faster	-3032
▁putting	-3033
▁surprise	-3034
ka	-3035
ani	-3036
▁vir	-3037
▁shop	-3038
▁helped	-3039
gar	-3040
jay	-3041
rav	-3042
▁Dis	-3043
vious	-3044
▁Sawyer	-3045
▁temple	-3046
▁diamonds	-3047
▁Wal	-3048
▁gar	-3049
▁thr	-3050
▁freak	-3051
ends	-3052
lebr	-3053
▁psy	-3054
eared	-3055
▁Prem	-3056
▁rese	-3057
ero	-3058
dden	-3059
▁Select	-3060
arch	-3061
hood	-3062
▁Air	-3063
▁Ray	-3064
rench	-3065
▁spot	-3066
▁cause	-3067
▁waste	-3068
▁during	-3069
▁perform	-3070
mond	-3071
riff	-3072
▁Cor	-3073
▁Jim	-3074
alent	-3075
ashed	-3076
▁Pull	-3077
▁Talk	-3078
ishing	-3079
▁guard	-3080
co	-3081
▁Af	-3082
▁City	-3083
▁sudden	-3084
gn	-3085
gel	-3086
aint	-3087
aith	-3088
▁ant	-3089
▁sky	-3090
▁green	-3091
▁collect	-3092
▁weapons	-3093
▁witness	-3094
▁24	-3095
▁Sl	-3096
face	-3097
▁fat	-3098
place	-3099
▁Wind	-3100
▁Stand	-3101
nes	-3102
gress	-3103
icate	-3104
▁bloody	-3105
Oh	-3106
▁Aw	-3107
▁map	-3108
ellig	-3109
stood	-3110
▁Nik	-3111
iling	-3112
▁feels	-3113
▁organ	-3114
IS	-3115
▁Du	-3116
arlier	-3117
itions	-3118
▁river	-3119
▁further	-3120
▁tun	-3121
▁north	-3122
▁screw	-3123
▁failed	-3124
▁passed	-3125
erv	-3126
ett	-3127
▁40	-3128
▁Je	-3129
▁tea	-3130
▁duty	-3131
▁Start	-3132
▁Martin	-3133
▁decide	-3134
▁Gre	-3135
▁sleeping	-3136
▁Int	-3137
▁Rah	-3138
▁Enough	-3139
▁author	-3140
▁Ell	-3141
▁pulled	-3142
▁destroyed	-3143
It	-3144
do	-3145
inct	-3146
ners	-3147
▁fort	-3148
▁common	-3149
▁itself	-3150
mer	-3151
gest	-3152
▁Fin	-3153
▁Inst	-3154
▁liked	-3155
▁medic	-3156
iced	-3157
ppie	-3158
▁Ana	-3159
▁Sher	-3160
▁jour	-3161
▁soft	-3162
▁suff	-3163
▁relax	-3164
▁leader	-3165
▁totally	-3166
da	-3167
alf	-3168
pose	-3169
itten	-3170
▁upon	-3171
▁celebr	-3172
▁create	-3173
▁captain	-3174
▁involved	-3175
▁military	-3176
ktop	-3177
▁Kat	-3178
▁Rep	-3179
otion	-3180
▁site	-3181
▁Police	-3182
▁bigger	-3183
▁terrible	-3184
▁hy	-3185
fety	-3186
▁Copy	-3187
ints	-3188
▁Att	-3189
▁Que	-3190
▁Too	-3191
▁separ	-3192
▁driver	-3193
▁Without	-3194
▁finished	-3195
ker	-3196
▁mut	-3197
▁coun	-3198
▁Doesn	-3199
▁necess	-3200
▁mountain	-3201
aven	-3202
lder	-3203
▁Mod	-3204
ortun	-3205
▁Shaw	-3206
▁data	-3207
▁empty	-3208
▁storm	-3209
▁applic	-3210
gy	-3211
loe	-3212
▁orig	-3213
▁Chloe	-3214
▁Mommy	-3215
▁Sarah	-3216
▁plant	-3217
rag	-3218
will	-3219
▁Four	-3220
▁Thom	-3221
▁note	-3222
rength	-3223
▁claim	-3224
▁pract	-3225
.."	-3226
▁--	-3227
▁Add	-3228
▁Rad	-3229
▁War	-3230
amb	-3231
ceed	-3232
▁Pick	-3233
▁gate	-3234
▁heal	-3235
▁gives	-3236
▁lived	-3237
▁Doctor	-3238
▁finger	-3239
▁keeping	-3240
▁TO	-3241
rish	-3242
▁Brit	-3243
▁drag	-3244
▁skin	-3245
▁moved	-3246
▁price	-3247
▁losing	-3248
▁willing	-3249
iel	-3250
ipe	-3251
anda	-3252
ergy	-3253
then	-3254
venge	-3255
▁moon	-3256
▁Sweet	-3257
▁smile	-3258
▁assist	-3259
▁allowed	-3260
▁attempt	-3261
▁boyfriend	-3262
▁KDE	-3263
▁Nor	-3264
▁cast	-3265
▁joke	-3266
▁spir	-3267
▁picked	-3268
his	-3269
arty	-3270
ruct	-3271
▁yell	-3272
yal	-3273
ills	-3274
urch	-3275
▁vac	-3276
▁Chappie	-3277
▁emergency	-3278
ids	-3279
▁godd	-3280
▁Steve	-3281
ira	-3282
▁Lau	-3283
▁soc	-3284
itude	-3285
▁arms	-3286
▁size	-3287
▁photo	-3288
aly	-3289
esome	-3290
▁hadn	-3291
▁sens	-3292
▁view	-3293
▁Kevin	-3294
▁Roger	-3295
▁eating	-3296
▁medical	-3297
And	-3298
let	-3299
olen	-3300
▁Same	-3301
▁copy	-3302
▁stat	-3303
ptions	-3304
▁knock	-3305
▁unless	-3306
▁starting	-3307
▁18	-3308
ened	-3309
than	-3310
▁cave	-3311
▁rich	-3312
▁ways	-3313
▁final	-3314
▁except	-3315
▁convers	-3316
▁teacher	-3317
iff	-3318
▁16	-3319
▁Shh	-3320
▁comb	-3321
▁color	-3322
▁Follow	-3323
aul	-3324
▁Res	-3325
ement	-3326
idden	-3327
iment	-3328
▁buck	-3329
▁film	-3330
▁drunk	-3331
▁likes	-3332
▁apartment	-3333
▁Sur	-3334
geant	-3335
▁Congratulations	-3336
▁?	-3337
uit	-3338
▁Mo	-3339
▁Boy	-3340
▁Mil	-3341
▁cab	-3342
▁kit	-3343
▁faith	-3344
ibly	-3345
oman	-3346
▁reb	-3347
▁Anj	-3348
▁Met	-3349
▁Ron	-3350
▁Vas	-3351
▁Jason	-3352
▁ourselves	-3353
ives	-3354
icide	-3355
ising	-3356
▁suck	-3357
▁store	-3358
▁Anyway	-3359
▁planning	-3360
▁property	-3361
rel	-3362
▁Mal	-3363
▁Cent	-3364
father	-3365
▁above	-3366
▁brave	-3367
▁lunch	-3368
▁poison	-3369
▁partner	-3370
▁repe	-3371
▁sake	-3372
esides	-3373
ording	-3374
▁leaves	-3375
▁strength	-3376
xy	-3377
▁Ol	-3378
▁fit	-3379
▁mask	-3380
▁crack	-3381
ji	-3382
yl	-3383
can	-3384
omes	-3385
▁spl	-3386
▁Aren	-3387
▁Most	-3388
▁daddy	-3389
▁keeps	-3390
▁private	-3391
▁language	-3392
▁transfer	-3393
OT	-3394
ns	-3395
icy	-3396
rodu	-3397
▁exec	-3398
▁result	-3399
▁safety	-3400
▁Another	-3401
▁wonderful	-3402
▁themselves	-3403
OW	-3404
▁Ant	-3405
▁Bri	-3406
▁Dou	-3407
▁Ooh	-3408
▁Mama	-3409
▁Thomas	-3410
▁excuse	-3411
▁hoping	-3412
▁changes	-3413
▁towards	-3414
▁responsible	-3415
rif	-3416
▁Ask	-3417
ances	-3418
▁Conf	-3419
▁plans	-3420
▁action	-3421
▁battle	-3422
▁showed	-3423
▁earlier	-3424
gen	-3425
rer	-3426
▁La	-3427
▁Ob	-3428
oned	-3429
▁und	-3430
▁ladies	-3431
▁taught	-3432
▁condition	-3433
5.	-3434
▁pan	-3435
▁swim	-3436
▁neigh	-3437
▁interesting	-3438
LE	-3439
ued	-3440
phan	-3441
rate	-3442
▁Ten	-3443
▁Vel	-3444
ology	-3445
▁Care	-3446
▁fake	-3447
▁polit	-3448
▁darling	-3449
ju	-3450
▁Dor	-3451
▁Down	-3452
▁Hand	-3453
▁huge	-3454
▁Close	-3455
▁headed	-3456
▁murdered	-3457
ees	-3458
fuck	-3459
ises	-3460
▁tab	-3461
▁Delhi	-3462
▁doors	-3463
▁0	-3464
oid	-3465
arden	-3466
▁Head	-3467
yn	-3468
fast	-3469
pect	-3470
▁fate	-3471
▁Their	-3472
▁thief	-3473
▁letter	-3474
eat	-3475
oad	-3476
down	-3477
▁Luc	-3478
▁upset	-3479
▁Holmes	-3480
▁arrived	-3481
asc	-3482
▁ls	-3483
cher	-3484
word	-3485
▁Remove	-3486
▁opportun	-3487
osh	-3488
bing	-3489
well	-3490
▁Way	-3491
▁favorite	-3492
▁nu	-3493
▁Cur	-3494
▁enc	-3495
▁Holy	-3496
▁crap	-3497
▁hunt	-3498
▁snow	-3499
▁tele	-3500
▁knife	-3501
▁shock	-3502
▁scream	-3503
▁reading	-3504
het	-3505
uro	-3506
noon	-3507
▁Ted	-3508
▁bab	-3509
▁Priya	-3510
▁wound	-3511
▁option	-3512
▁created	-3513
▁learned	-3514
▁hi	-3515
ining	-3516
▁susp	-3517
▁Rahul	-3518
▁apart	-3519
▁escap	-3520
▁relationship	-3521
▁vol	-3522
▁tort	-3523
▁Henry	-3524
▁const	-3525
▁queen	-3526
▁corner	-3527
▁source	-3528
▁beginning	-3529
▁Absolutely	-3530
ech	-3531
hik	-3532
▁ill	-3533
ivers	-3534
▁incl	-3535
ays	-3536
xic	-3537
▁Mac	-3538
▁hig	-3539
earch	-3540
▁trip	-3541
▁tough	-3542
▁twice	-3543
▁develop	-3544
▁followed	-3545
gin	-3546
gre	-3547
ival	-3548
▁Aut	-3549
▁imm	-3550
▁ghost	-3551
▁south	-3552
▁worst	-3553
▁Anyone	-3554
▁saving	-3555
▁believed	-3556
▁consider	-3557
lu	-3558
ites	-3559
known	-3560
▁Super	-3561
▁react	-3562
▁value	-3563
▁acting	-3564
▁flying	-3565
▁powerful	-3566
▁terrorist	-3567
▁14	-3568
yond	-3569
▁bell	-3570
▁chat	-3571
▁places	-3572
▁powers	-3573
▁install	-3574
▁reached	-3575
▁vehicle	-3576
back	-3577
▁Set	-3578
▁cup	-3579
▁pil	-3580
▁Calm	-3581
▁Long	-3582
▁bene	-3583
▁fresh	-3584
▁woods	-3585
▁lovely	-3586
▁stolen	-3587
▁department	-3588
NA	-3589
cho	-3590
enn	-3591
ism	-3592
off	-3593
rief	-3594
▁amb	-3595
▁neg	-3596
▁Queen	-3597
▁South	-3598
▁hello	-3599
▁beyond	-3600
▁fellow	-3601
▁continue	-3602
▁Ric	-3603
astic	-3604
▁phys	-3605
▁rule	-3606
▁airport	-3607
▁answers	-3608
▁Norm	-3609
▁bast	-3610
▁natur	-3611
onsense	-3612
▁bought	-3613
▁gotten	-3614
▁painting	-3615
▁pressure	-3616
▁experience	-3617
war	-3618
▁Dom	-3619
▁nose	-3620
▁Guess	-3621
▁Light	-3622
▁often	-3623
▁speaking	-3624
CK	-3625
ased	-3626
ailed	-3627
▁among	-3628
▁smoke	-3629
▁animals	-3630
chen	-3631
▁Bel	-3632
▁Cal	-3633
▁den	-3634
attoo	-3635
▁ends	-3636
▁wild	-3637
ension	-3638
▁Relax	-3639
▁focus	-3640
▁device	-3641
▁spades	-3642
▁Cr	-3643
▁Dri	-3644
▁Mill	-3645
▁aware	-3646
▁bathroom	-3647
odies	-3648
▁Lady	-3649
▁Shan	-3650
▁hall	-3651
icense	-3652
▁freed	-3653
▁raise	-3654
▁insane	-3655
▁pleasure	-3656
▁Hit	-3657
▁civ	-3658
▁gas	-3659
oring	-3660
▁Hunt	-3661
▁Whit	-3662
▁cute	-3663
▁lord	-3664
▁bless	-3665
ailable	-3666
▁sweetheart	-3667
▁Small	-3668
▁setting	-3669
hai	-3670
ipp	-3671
▁Jac	-3672
▁Free	-3673
▁wast	-3674
▁Thing	-3675
▁arrange	-3676
▁Tomorrow	-3677
▁intellig	-3678
▁necessary	-3679
▁WH	-3680
▁Hon	-3681
▁due	-3682
▁Bill	-3683
▁capt	-3684
▁docum	-3685
My	-3686
▁Ja	-3687
▁pus	-3688
▁Cole	-3689
▁harm	-3690
▁lift	-3691
▁Better	-3692
▁Hurley	-3693
▁descri	-3694
▁deserve	-3695
▁written	-3696
▁interview	-3697
▁pock	-3698
olution	-3699
▁custom	-3700
▁Morning	-3701
▁goddamn	-3702
▁staying	-3703
▁Probably	-3704
▁egg	-3705
▁piss	-3706
▁shad	-3707
ference	-3708
▁partic	-3709
▁tunnel	-3710
▁introdu	-3711
▁knowing	-3712
▁success	-3713
▁princess	-3714
▁realized	-3715
▁Hug	-3716
▁lies	-3717
▁Walter	-3718
▁betray	-3719
-1	-3720
sa	-3721
aker	-3722
chan	-3723
▁Aah	-3724
▁Bea	-3725
▁bug	-3726
▁Both	-3727
▁Jane	-3728
▁Play	-3729
▁spare	-3730
▁tells	-3731
▁energy	-3732
▁destiny	-3733
▁research	-3734
▁recognize	-3735
▁opportunity	-3736
▁heavy	-3737
▁switch	-3738
▁dropped	-3739
ino	-3740
▁CIA	-3741
▁Vis	-3742
arter	-3743
▁roof	-3744
▁Singh	-3745
▁asshole	-3746
▁breathe	-3747
nal	-3748
vey	-3749
▁Def	-3750
▁Log	-3751
achel	-3752
▁Emily	-3753
▁wrote	-3754
▁played	-3755
GH	-3756
ox	-3757
va	-3758
ique	-3759
▁Anna	-3760
▁pred	-3761
fortun	-3762
▁Barry	-3763
▁bunch	-3764
▁shoes	-3765
▁double	-3766
▁weight	-3767
▁Detective	-3768
▁afternoon	-3769
▁Liz	-3770
▁books	-3771
▁proof	-3772
spector	-3773
▁market	-3774
▁opened	-3775
▁mor	-3776
otten	-3777
▁bare	-3778
ecially	-3779
iculous	-3780
▁Richard	-3781
▁hearing	-3782
▁purpose	-3783
▁contract	-3784
▁shooting	-3785
▁surprised	-3786
▁Far	-3787
▁ign	-3788
ender	-3789
▁Pret	-3790
▁cred	-3791
▁Ethan	-3792
▁local	-3793
▁British	-3794
EA	-3795
ELL	-3796
▁Cy	-3797
mine	-3798
reme	-3799
▁shirt	-3800
▁advice	-3801
eal	-3802
net	-3803
▁AND	-3804
▁mid	-3805
▁quit	-3806
▁heads	-3807
▁horse	-3808
arently	-3809
▁conversation	-3810
▁hol	-3811
▁sam	-3812
▁camer	-3813
▁appear	-3814
▁bodies	-3815
▁photog	-3816
▁details	-3817
▁letting	-3818
omed	-3819
▁Bur	-3820
▁Mag	-3821
▁Hank	-3822
▁Were	-3823
▁loss	-3824
▁clock	-3825
▁enter	-3826
▁scare	-3827
▁stars	-3828
▁explos	-3829
▁attacked	-3830
▁bullshit	-3831
OO	-3832
▁pu	-3833
▁Cut	-3834
ipped	-3835
ledge	-3836
▁Sean	-3837
▁Clear	-3838
▁spoke	-3839
ulation	-3840
▁French	-3841
▁Sounds	-3842
▁falling	-3843
▁usually	-3844
▁absolutely	-3845
this	-3846
▁Cap	-3847
▁Jin	-3848
▁Six	-3849
▁ours	-3850
▁sand	-3851
iction	-3852
▁Professor	-3853
▁connection	-3854
▁Sus	-3855
▁fan	-3856
▁odd	-3857
▁Aust	-3858
▁bleed	-3859
▁feelings	-3860
▁seriously	-3861
imp	-3862
llen	-3863
▁Dep	-3864
▁serv	-3865
▁tour	-3866
▁sending	-3867
▁Sherlock	-3868
▁criminal	-3869
Yes	-3870
▁Dam	-3871
▁non	-3872
▁Cass	-3873
▁route	-3874
▁sever	-3875
▁trigg	-3876
▁disappear	-3877
ium	-3878
iers	-3879
like	-3880
▁Sub	-3881
▁Whe	-3882
▁cau	-3883
▁tax	-3884
oming	-3885
▁Send	-3886
▁Walk	-3887
▁whose	-3888
▁lawyer	-3889
▁tattoo	-3890
▁Grandpa	-3891
▁dollars	-3892
▁manager	-3893
▁noticed	-3894
▁training	-3895
ET	-3896
itz	-3897
book	-3898
▁fle	-3899
older	-3900
▁Coll	-3901
▁Mary	-3902
▁warm	-3903
ential	-3904
▁accom	-3905
▁clubs	-3906
▁games	-3907
▁hired	-3908
▁image	-3909
▁issue	-3910
▁agreed	-3911
▁Exactly	-3912
yan	-3913
cing	-3914
reck	-3915
▁cro	-3916
▁West	-3917
ration	-3918
▁Unless	-3919
▁starts	-3920
▁finding	-3921
▁permission	-3922
7.	-3923
▁Id	-3924
▁Sa	-3925
ancy	-3926
raph	-3927
▁Rec	-3928
▁cal	-3929
fered	-3930
▁Ever	-3931
▁Veer	-3932
▁warri	-3933
▁Security	-3934
▁breaking	-3935
▁selected	-3936
-2	-3937
hod	-3938
uly	-3939
▁Ass	-3940
▁Hor	-3941
▁Jan	-3942
▁Chand	-3943
▁round	-3944
▁secure	-3945
▁confirm	-3946
▁breakfast	-3947
akh	-3948
▁Yo	-3949
▁File	-3950
▁hack	-3951
aching	-3952
▁ticket	-3953
▁monster	-3954
ki	-3955
▁fed	-3956
▁maj	-3957
usion	-3958
▁Must	-3959
▁Simon	-3960
▁serve	-3961
▁checked	-3962
ona	-3963
...!	-3964
onel	-3965
▁dial	-3966
▁item	-3967
▁blame	-3968
▁judge	-3969
▁brothers	-3970
eg	-3971
hand	-3972
antic	-3973
▁Drop	-3974
▁dumb	-3975
▁unit	-3976
▁birds	-3977
agement	-3978
▁remote	-3979
▁spirit	-3980
▁neither	-3981
asure	-3982
inese	-3983
▁dirty	-3984
▁drugs	-3985
▁loose	-3986
▁affect	-3987
▁rescue	-3988
eez	-3989
▁Kent	-3990
▁Spec	-3991
▁Always	-3992
▁raised	-3993
▁deliver	-3994
roe	-3995
zen	-3996
aled	-3997
aren	-3998
unny	-3999
ware	-4000
▁Sol	-4001
order	-4002
▁trick	-4003
▁animal	-4004
▁bridge	-4005
▁spread	-4006
▁display	-4007
▁warning	-4008
▁wondering	-4009
▁log	-4010
▁nur	-4011
▁Comp	-4012
▁Offic	-4013
▁fixed	-4014
ED	-4015
ayud	-4016
mark	-4017
▁cock	-4018
▁runs	-4019
▁Until	-4020
▁aside	-4021
▁teeth	-4022
cellent	-4023
▁object	-4024
▁priest	-4025
▁comfort	-4026
▁upstairs	-4027
▁IT	-4028
arant	-4029
veill	-4030
▁Speak	-4031
▁fired	-4032
▁hatch	-4033
▁pregn	-4034
▁George	-4035
▁employ	-4036
ummy	-4037
▁dem	-4038
▁est	-4039
imate	-4040
izing	-4041
▁Wake	-4042
▁infect	-4043
▁settle	-4044
▁kitchen	-4045
▁Minister	-4046
▁Dec	-4047
▁fol	-4048
▁Hope	-4049
▁None	-4050
▁Wall	-4051
▁papa	-4052
ection	-4053
▁below	-4054
▁nature	-4055
reetings	-4056
▁pictures	-4057
▁available	-4058
▁ridiculous	-4059
1.	-4060
date	-4061
▁rev	-4062
▁held	-4063
▁ocean	-4064
▁Monroe	-4065
In	-4066
Let	-4067
ika	-4068
vir	-4069
hary	-4070
iday	-4071
▁Lou	-4072
ounce	-4073
▁Lock	-4074
▁tail	-4075
▁Indian	-4076
▁clearly	-4077
▁original	-4078
ko	-4079
ada	-4080
▁Po	-4081
acle	-4082
olly	-4083
house	-4084
▁dies	-4085
▁Shoot	-4086
ruction	-4087
▁charac	-4088
▁papers	-4089
▁justice	-4090
▁suicide	-4091
▁operation	-4092
▁Wor	-4093
gging	-4094
▁trap	-4095
▁North	-4096
ayudham	-4097
▁strike	-4098
▁walked	-4099
▁Chinese	-4100
▁greatest	-4101
2.	-4102
VE	-4103
za	-4104
boy	-4105
gged	-4106
ocol	-4107
▁Acc	-4108
icted	-4109
▁taste	-4110
▁matters	-4111
▁official	-4112
▁apologize	-4113
eng	-4114
aked	-4115
▁Won	-4116
▁mer	-4117
▁pet	-4118
▁Blue	-4119
▁Snow	-4120
▁genius	-4121
▁hidden	-4122
▁cameras	-4123
▁arrested	-4124
▁obviously	-4125
ulf	-4126
▁beer	-4127
▁sees	-4128
▁whom	-4129
▁meters	-4130
▁prefer	-4131
▁chicken	-4132
▁several	-4133
gal	-4134
rem	-4135
rit	-4136
lies	-4137
otte	-4138
▁net	-4139
▁Phil	-4140
▁Seen	-4141
▁trad	-4142
▁turns	-4143
▁Window	-4144
▁lights	-4145
▁perhaps	-4146
▁searching	-4147
cus	-4148
▁Green	-4149
▁madam	-4150
▁understood	-4151
Your	-4152
ishes	-4153
▁Mind	-4154
▁Name	-4155
▁fund	-4156
ressed	-4157
▁Search	-4158
▁Things	-4159
▁crying	-4160
▁stories	-4161
▁bringing	-4162
aa	-4163
BAR	-4164
ITT	-4165
van	-4166
zing	-4167
▁led	-4168
▁Hugo	-4169
▁dogs	-4170
▁Ladies	-4171
▁assume	-4172
▁forest	-4173
▁nonsense	-4174
ga	-4175
▁)	-4176
hem	-4177
non	-4178
born	-4179
iled	-4180
▁rat	-4181
clear	-4182
▁mass	-4183
▁assign	-4184
▁nowhere	-4185
▁secrets	-4186
▁Velayudham	-4187
bec	-4188
unior	-4189
▁Bella	-4190
▁Night	-4191
▁walls	-4192
▁States	-4193
▁scient	-4194
▁license	-4195
▁trigger	-4196
andu	-4197
▁Kab	-4198
▁nor	-4199
▁Home	-4200
▁virus	-4201
▁United	-4202
▁bottle	-4203
▁incred	-4204
▁package	-4205
▁received	-4206
▁disappeared	-4207
ara	-4208
ils	-4209
ply	-4210
rica	-4211
▁Rain	-4212
▁danc	-4213
▁loud	-4214
▁battery	-4215
▁biggest	-4216
▁challen	-4217
▁staring	-4218
▁subject	-4219
▁recently	-4220
▁survived	-4221
Don	-4222
col	-4223
▁mix	-4224
▁admit	-4225
▁sched	-4226
▁Besides	-4227
▁escaped	-4228
▁freedom	-4229
▁directory	-4230
▁responsibility	-4231
uman	-4232
▁ide	-4233
▁cous	-4234
▁page	-4235
▁term	-4236
▁bottom	-4237
▁Russian	-4238
▁bastard	-4239
▁extreme	-4240
▁kingdom	-4241
▁drinking	-4242
con	-4243
ena	-4244
pes	-4245
▁'%	-4246
unty	-4247
▁Sal	-4248
▁sna	-4249
using	-4250
▁Park	-4251
▁chem	-4252
icious	-4253
▁pilot	-4254
▁stock	-4255
ization	-4256
▁Africa	-4257
▁amount	-4258
▁easily	-4259
▁excited	-4260
▁grandpa	-4261
▁stranger	-4262
cel	-4263
adin	-4264
esty	-4265
▁Bad	-4266
▁Again	-4267
▁Quick	-4268
▁Pretty	-4269
▁famous	-4270
▁herself	-4271
▁journey	-4272
▁natural	-4273
▁victims	-4274
▁incident	-4275
rib	-4276
▁Mer	-4277
▁Roy	-4278
ander	-4279
ector	-4280
▁Sand	-4281
▁aunt	-4282
urious	-4283
▁pants	-4284
▁study	-4285
▁famili	-4286
▁screen	-4287
▁awesome	-4288
▁somehow	-4289
▁trapped	-4290
This	-4291
rass	-4292
▁Tra	-4293
▁dry	-4294
▁Work	-4295
▁cart	-4296
▁hunting	-4297
▁progress	-4298
give	-4299
▁Day	-4300
asons	-4301
iring	-4302
▁Euro	-4303
▁Greg	-4304
▁milk	-4305
▁tall	-4306
▁Mexic	-4307
▁Scott	-4308
▁church	-4309
▁directly	-4310
▁president	-4311
ppy	-4312
▁Li	-4313
mber	-4314
▁DNA	-4315
▁Linc	-4316
▁prec	-4317
▁Goodbye	-4318
▁surveill	-4319
ped	-4320
raw	-4321
wood	-4322
▁Bra	-4323
▁Nia	-4324
▁Godd	-4325
▁evac	-4326
▁reve	-4327
▁Chief	-4328
▁shame	-4329
▁pieces	-4330
▁appears	-4331
den	-4332
iform	-4333
licop	-4334
▁Tony	-4335
▁legs	-4336
▁tank	-4337
▁Johnny	-4338
▁Sister	-4339
▁beauty	-4340
▁humans	-4341
▁satell	-4342
▁covered	-4343
▁percent	-4344
▁pregnant	-4345
▁suddenly	-4346
▁thousands	-4347
ni	-4348
uce	-4349
▁Ap	-4350
▁ho	-4351
eted	-4352
itle	-4353
mail	-4354
▁eff	-4355
▁Hard	-4356
▁large	-4357
▁lines	-4358
▁shows	-4359
barrass	-4360
▁easier	-4361
▁paying	-4362
▁records	-4363
▁science	-4364
▁memories	-4365
▁application	-4366
3.	-4367
iger	-4368
▁Jai	-4369
▁Dire	-4370
ources	-4371
▁Blood	-4372
▁Seenu	-4373
▁major	-4374
▁remem	-4375
▁Aladin	-4376
▁turning	-4377
ava	-4378
▁17	-4379
itiz	-4380
olis	-4381
ples	-4382
▁bow	-4383
▁Nick	-4384
▁chair	-4385
▁champ	-4386
▁Juliet	-4387
▁compan	-4388
▁notice	-4389
ux	-4390
▁op	-4391
▁rub	-4392
▁ver	-4393
▁Dear	-4394
▁Sant	-4395
▁finds	-4396
▁Coming	-4397
▁Daniel	-4398
▁Luthor	-4399
▁nearly	-4400
rilliant	-4401
▁soldier	-4402
lor	-4403
acks	-4404
▁Wil	-4405
▁spy	-4406
alley	-4407
▁band	-4408
ervous	-4409
▁State	-4410
▁White	-4411
▁shift	-4412
▁includ	-4413
▁stayed	-4414
▁strugg	-4415
▁Whitney	-4416
▁meaning	-4417
▁distance	-4418
▁familiar	-4419
ality	-4420
▁crow	-4421
▁scan	-4422
▁Grace	-4423
▁lover	-4424
ication	-4425
▁filled	-4426
▁pocket	-4427
▁Control	-4428
▁Greetings	-4429
▁Otherwise	-4430
▁forgotten	-4431
ca	-4432
imum	-4433
▁Its	-4434
▁Old	-4435
▁Sat	-4436
iarty	-4437
▁aband	-4438
▁points	-4439
▁profile	-4440
▁500	-4441
▁Feel	-4442
▁Know	-4443
▁font	-4444
▁init	-4445
▁click	-4446
▁Rachel	-4447
▁Robert	-4448
▁simply	-4449
▁belongs	-4450
CH	-4451
US	-4452
How	-4453
mar	-4454
ted	-4455
That	-4456
ford	-4457
▁Gar	-4458
▁sle	-4459
iance	-4460
▁Star	-4461
▁Tommy	-4462
▁Trans	-4463
▁staff	-4464
▁demand	-4465
▁distur	-4466
▁flowers	-4467
▁helicop	-4468
-4	-4469
▁Had	-4470
▁Mos	-4471
▁Tur	-4472
ctors	-4473
▁dont	-4474
▁hook	-4475
▁vers	-4476
▁compet	-4477
▁William	-4478
▁nervous	-4479
▁kidnapped	-4480
hh	-4481
fit	-4482
hew	-4483
▁"%	-4484
▁Ac	-4485
eech	-4486
pens	-4487
year	-4488
▁adm	-4489
▁Duke	-4490
▁farm	-4491
▁chain	-4492
▁units	-4493
▁Officer	-4494
▁capable	-4495
▁respond	-4496
▁Moriarty	-4497
▁embarrass	-4498
▁profession	-4499
AY	-4500
▁Ral	-4501
▁unt	-4502
▁KITT	-4503
▁flat	-4504
▁tape	-4505
▁status	-4506
▁summer	-4507
▁Thought	-4508
▁enemies	-4509
▁US	-4510
inda	-4511
▁Jer	-4512
▁Ros	-4513
▁sin	-4514
sters	-4515
▁bust	-4516
▁effort	-4517
50	-4518
uf	-4519
ips	-4520
▁Ca	-4521
vior	-4522
▁Bat	-4523
umber	-4524
▁Hanna	-4525
▁Water	-4526
▁cases	-4527
▁civil	-4528
▁wheel	-4529
ilities	-4530
▁Intern	-4531
▁brings	-4532
▁commit	-4533
▁Careful	-4534
▁Whoever	-4535
▁showing	-4536
▁Commander	-4537
▁breathing	-4538
▁ON	-4539
▁End	-4540
▁Sum	-4541
▁Zoe	-4542
▁aud	-4543
▁unc	-4544
▁Girl	-4545
▁Pint	-4546
▁grad	-4547
▁ille	-4548
▁stab	-4549
tering	-4550
▁Build	-4551
▁outta	-4552
▁Either	-4553
▁cousin	-4554
▁damage	-4555
▁desert	-4556
▁protocol	-4557
▁tracking	-4558
UT	-4559
bel	-4560
bur	-4561
▁Ann	-4562
▁Off	-4563
▁oil	-4564
derer	-4565
fucker	-4566
▁produ	-4567
▁buried	-4568
▁season	-4569
▁attract	-4570
▁medicine	-4571
▁millions	-4572
▁minister	-4573
▁Charlotte	-4574
▁Seriously	-4575
▁ID	-4576
▁ME	-4577
iety	-4578
athan	-4579
bered	-4580
▁Mand	-4581
▁Mess	-4582
▁ears	-4583
▁Europe	-4584
▁emotion	-4585
▁direction	-4586
▁IN	-4587
ilty	-4588
▁tool	-4589
▁wave	-4590
iverse	-4591
▁anger	-4592
▁stage	-4593
▁steps	-4594
▁style	-4595
▁Redding	-4596
▁hanging	-4597
▁convince	-4598
▁grandfather	-4599
RI	-4600
But	-4601
put	-4602
▁BE	-4603
rant	-4604
▁mob	-4605
▁deli	-4606
▁mile	-4607
▁Ralph	-4608
▁grown	-4609
▁barely	-4610
mas	-4611
▁Hy	-4612
▁Dar	-4613
▁East	-4614
▁Paul	-4615
▁Bobby	-4616
▁incre	-4617
▁owner	-4618
▁borrow	-4619
▁heaven	-4620
▁wallet	-4621
▁whoever	-4622
▁windows	-4623
▁possibly	-4624
▁intelligence	-4625
la	-4626
hin	-4627
rows	-4628
▁Josh	-4629
▁thro	-4630
▁truly	-4631
▁Program	-4632
▁Sheriff	-4633
▁uniform	-4634
▁prepared	-4635
▁specific	-4636
▁certainly	-4637
▁complicated	-4638
▁60	-4639
▁IS	-4640
▁wet	-4641
▁trees	-4642
▁Metrop	-4643
▁Colonel	-4644
▁carefully	-4645
AM	-4646
cut	-4647
omm	-4648
▁Guy	-4649
▁MAN	-4650
▁Tre	-4651
▁blew	-4652
antage	-4653
romise	-4654
▁chest	-4655
▁chose	-4656
▁silly	-4657
▁Street	-4658
▁fought	-4659
▁nuclear	-4660
▁plugins	-4661
▁neighbor	-4662
▁Reddington	-4663
▁surveillance	-4664
OL	-4665
haw	-4666
ida	-4667
iod	-4668
▁Wr	-4669
▁Doc	-4670
▁Him	-4671
▁Tri	-4672
▁inj	-4673
▁mic	-4674
▁Fair	-4675
rifice	-4676
▁occur	-4677
▁solve	-4678
▁Andrew	-4679
▁credit	-4680
All	-4681
raft	-4682
with	-4683
▁pig	-4684
▁Luck	-4685
▁Rock	-4686
▁cares	-4687
▁expected	-4688
▁detective	-4689
▁happiness	-4690
▁knowledge	-4691
▁Metropolis	-4692
awn	-4693
▁Ber	-4694
▁Sen	-4695
▁dom	-4696
ulate	-4697
▁Sund	-4698
▁Whoo	-4699
▁butt	-4700
▁dump	-4701
▁Class	-4702
▁elder	-4703
▁shell	-4704
▁trade	-4705
▁guards	-4706
▁seemed	-4707
▁Hel	-4708
▁Kal	-4709
▁Sel	-4710
▁Ver	-4711
▁tie	-4712
▁Cons	-4713
▁Rome	-4714
▁Ryan	-4715
▁heat	-4716
▁House	-4717
▁Forgive	-4718
▁Fucking	-4719
▁closing	-4720
▁confused	-4721
▁handsome	-4722
▁investigation	-4723
amm	-4724
ties	-4725
▁Reg	-4726
▁spo	-4727
▁Shar	-4728
▁fuel	-4729
▁lots	-4730
▁repl	-4731
▁assoc	-4732
▁drill	-4733
▁folks	-4734
▁shout	-4735
▁Oliver	-4736
▁invent	-4737
▁surround	-4738
▁Az	-4739
asty	-4740
▁lap	-4741
▁Boss	-4742
▁Mars	-4743
▁Shre	-4744
imeter	-4745
▁Death	-4746
▁blast	-4747
▁bucks	-4748
▁fully	-4749
▁forced	-4750
▁fucked	-4751
▁nights	-4752
▁laughing	-4753
▁passport	-4754
▁properly	-4755
▁sacrifice	-4756
▁disappoint	-4757
ila	-4758
uct	-4759
▁Aye	-4760
▁Sil	-4761
▁Slow	-4762
▁lakh	-4763
▁link	-4764
▁rare	-4765
prints	-4766
▁Alice	-4767
▁chief	-4768
▁divor	-4769
▁ended	-4770
▁giant	-4771
▁rocks	-4772
▁bright	-4773
▁defense	-4774
▁goodbye	-4775
▁pulling	-4776
▁Christmas	-4777
▁committed	-4778
▁concerned	-4779
lyn	-4780
rik	-4781
elly	-4782
udhe	-4783
▁Men	-4784
▁Pop	-4785
▁lat	-4786
allow	-4787
▁Force	-4788
▁loyal	-4789
▁Except	-4790
▁talent	-4791
▁convinc	-4792
▁example	-4793
9.	-4794
IM	-4795
esp	-4796
kin	-4797
▁bal	-4798
ental	-4799
▁mood	-4800
▁port	-4801
▁tear	-4802
▁avoid	-4803
▁moves	-4804
itional	-4805
▁Almost	-4806
▁Though	-4807
▁ruined	-4808
▁Majesty	-4809
▁dressed	-4810
▁watched	-4811
▁bleeding	-4812
▁designed	-4813
▁helicopter	-4814
apt	-4815
don	-4816
ita	-4817
iya	-4818
etch	-4819
ardon	-4820
asion	-4821
▁Life	-4822
▁bike	-4823
▁exit	-4824
▁wire	-4825
urance	-4826
▁Annie	-4827
▁Count	-4828
▁Seven	-4829
▁Wayne	-4830
▁balls	-4831
▁faces	-4832
▁robot	-4833
▁talks	-4834
ression	-4835
▁likely	-4836
▁repeat	-4837
▁identity	-4838
▁thoughts	-4839
fortunately	-4840
▁Ba	-4841
▁Jay	-4842
▁Tay	-4843
arett	-4844
▁Brand	-4845
▁Jacob	-4846
▁alert	-4847
▁marks	-4848
igarett	-4849
▁launch	-4850
▁pattern	-4851
Why	-4852
vat	-4853
Yeah	-4854
rend	-4855
▁Dem	-4856
▁Gun	-4857
▁hug	-4858
umbai	-4859
▁Soon	-4860
angers	-4861
▁Pintu	-4862
▁brief	-4863
▁active	-4864
▁asleep	-4865
▁warrior	-4866
▁universe	-4867
▁celebrate	-4868
ID	-4869
IR	-4870
esh	-4871
oln	-4872
rey	-4873
ston	-4874
▁cake	-4875
▁rush	-4876
ipment	-4877
▁Susan	-4878
▁error	-4879
▁butter	-4880
▁center	-4881
▁higher	-4882
▁Whether	-4883
▁revenge	-4884
▁director	-4885
▁murderer	-4886
▁soldiers	-4887
6.	-4888
ago	-4889
alli	-4890
▁Eat	-4891
▁Nic	-4892
▁Vik	-4893
▁fem	-4894
illed	-4895
rible	-4896
▁Haven	-4897
▁exact	-4898
itation	-4899
▁career	-4900
▁plugin	-4901
▁useless	-4902
▁relative	-4903
af	-4904
▁Da	-4905
anny	-4906
iest	-4907
mbol	-4908
▁Cra	-4909
▁Lor	-4910
▁boo	-4911
▁rac	-4912
▁rom	-4913
▁sen	-4914
▁tim	-4915
wards	-4916
▁pool	-4917
▁online	-4918
▁regret	-4919
▁speech	-4920
▁Shannon	-4921
▁restaur	-4922
▁carrying	-4923
▁messages	-4924
▁,	-4925
lim	-4926
▁ep	-4927
uten	-4928
vies	-4929
▁wha	-4930
irmed	-4931
▁June	-4932
▁leads	-4933
▁theory	-4934
▁yellow	-4935
▁Desktop	-4936
▁hitting	-4937
▁traffic	-4938
▁distract	-4939
▁returned	-4940
▁assistant	-4941
oyd	-4942
anya	-4943
▁Bro	-4944
▁Hot	-4945
onder	-4946
rated	-4947
reets	-4948
▁Doug	-4949
▁deck	-4950
▁pill	-4951
▁vault	-4952
▁member	-4953
▁plenty	-4954
▁Special	-4955
▁courage	-4956
▁release	-4957
▁reports	-4958
▁complain	-4959
▁facility	-4960
cil	-4961
▁Kn	-4962
▁Yö	-4963
▁Los	-4964
▁Med	-4965
▁Gand	-4966
▁Lucy	-4967
▁bite	-4968
▁disk	-4969
▁whis	-4970
▁zero	-4971
▁cards	-4972
▁citiz	-4973
▁Taylor	-4974
▁exchan	-4975
▁movies	-4976
▁policy	-4977
▁planned	-4978
▁Smallville	-4979
aze	-4980
shi	-4981
uru	-4982
▁cy	-4983
acon	-4984
hern	-4985
hest	-4986
isco	-4987
▁anc	-4988
▁ban	-4989
xygen	-4990
▁Grab	-4991
▁Pete	-4992
▁disp	-4993
▁iron	-4994
▁warn	-4995
▁Billy	-4996
▁grade	-4997
▁impro	-4998
▁split	-4999
▁tower	-5000
▁Change	-5001
▁Mumbai	-5002
▁appoint	-5003
▁billion	-5004
▁password	-5005
▁equipment	-5006
ras	-5007
aper	-5008
▁Chi	-5009
▁Edd	-5010
▁Fel	-5011
▁Pet	-5012
abled	-5013
aming	-5014
essed	-5015
▁Vasu	-5016
▁adop	-5017
▁deter	-5018
▁Prince	-5019
▁opening	-5020
▁tickets	-5021
▁checking	-5022
▁Christian	-5023
▁connected	-5024
▁Previously	-5025
who	-5026
Come	-5027
▁Each	-5028
▁fant	-5029
▁Paris	-5030
▁Quiet	-5031
▁coinc	-5032
▁cream	-5033
▁spell	-5034
▁trail	-5035
▁German	-5036
▁expert	-5037
▁Lincoln	-5038
▁miracle	-5039
▁picking	-5040
AD	-5041
eds	-5042
▁da	-5043
quer	-5044
▁Tex	-5045
▁tap	-5046
hetic	-5047
▁Fort	-5048
▁Maya	-5049
▁east	-5050
▁lets	-5051
▁liar	-5052
▁Files	-5053
▁climb	-5054
▁curse	-5055
▁parts	-5056
▁range	-5057
▁fallen	-5058
▁guilty	-5059
▁shower	-5060
▁illegal	-5061
▁writing	-5062
▁Victoria	-5063
▁officers	-5064
agg	-5065
hab	-5066
olf	-5067
▁lf	-5068
▁Jud	-5069
ordin	-5070
viron	-5071
▁Ange	-5072
▁Caes	-5073
▁Port	-5074
▁Rick	-5075
▁corn	-5076
▁west	-5077
chieve	-5078
▁Catch	-5079
▁hurts	-5080
▁print	-5081
▁kicked	-5082
▁useful	-5083
▁reasons	-5084
▁streets	-5085
▁stopping	-5086
LA	-5087
ilar	-5088
▁Bas	-5089
▁Yet	-5090
hered	-5091
▁rent	-5092
▁shel	-5093
iation	-5094
though	-5095
▁Eddie	-5096
▁Hands	-5097
▁tests	-5098
▁total	-5099
▁palace	-5100
▁function	-5101
▁brilliant	-5102
.,	-5103
PD	-5104
emo	-5105
gie	-5106
▁bi	-5107
▁eh	-5108
ighs	-5109
▁joy	-5110
ences	-5111
▁Cour	-5112
▁armed	-5113
▁Knight	-5114
▁afford	-5115
▁attend	-5116
▁entered	-5117
▁reality	-5118
▁introduce	-5119
amil	-5120
▁Hob	-5121
▁Van	-5122
▁fulf	-5123
ofield	-5124
▁Guard	-5125
▁Madam	-5126
▁prior	-5127
▁terms	-5128
▁highly	-5129
▁robber	-5130
▁members	-5131
▁parking	-5132
▁sweetie	-5133
▁trained	-5134
ification	-5135
vironment	-5136
▁expecting	-5137
▁incredible	-5138
▁technology	-5139
iple	-5140
outs	-5141
▁Goa	-5142
▁Jon	-5143
▁Dead	-5144
▁Full	-5145
▁Keen	-5146
▁agre	-5147
▁desk	-5148
▁dick	-5149
▁entr	-5150
▁nuts	-5151
▁Apple	-5152
▁World	-5153
▁cabin	-5154
▁flash	-5155
▁Gentle	-5156
▁beating	-5157
Hey	-5158
ano	-5159
:00.	-5160
alse	-5161
cast	-5162
rier	-5163
▁bye	-5164
aches	-5165
▁Matt	-5166
▁Meen	-5167
▁mail	-5168
ashing	-5169
▁While	-5170
▁desper	-5171
▁throat	-5172
▁threaten	-5173
▁whenever	-5174
▁character	-5175
rene	-5176
▁pin	-5177
▁Load	-5178
▁pers	-5179
▁task	-5180
▁tiny	-5181
udhary	-5182
▁Flash	-5183
▁autom	-5184
▁paint	-5185
▁threw	-5186
▁assass	-5187
▁favour	-5188
▁Central	-5189
▁general	-5190
▁weekend	-5191
▁cigarett	-5192
▁yourselves	-5193
▁Mir	-5194
▁Bank	-5195
▁Major	-5196
▁Seems	-5197
▁Whose	-5198
▁noise	-5199
▁somet	-5200
▁Caesar	-5201
▁temper	-5202
▁Believe	-5203
▁achieve	-5204
▁surface	-5205
▁mentioned	-5206
ev	-5207
▁HE	-5208
▁OF	-5209
▁Us	-5210
etic	-5211
hold	-5212
▁Cho	-5213
▁Jas	-5214
▁Lie	-5215
▁Army	-5216
▁Fish	-5217
▁Hail	-5218
▁Rose	-5219
▁Such	-5220
▁ruin	-5221
▁sail	-5222
▁Drink	-5223
▁garage	-5224
▁crashed	-5225
▁guarant	-5226
▁options	-5227
▁ordered	-5228
▁controll	-5229
▁Chaudhary	-5230
30	-5231
VER	-5232
bug	-5233
win	-5234
▁SH	-5235
gery	-5236
oken	-5237
uate	-5238
erial	-5239
grees	-5240
▁defe	-5241
omeday	-5242
rences	-5243
▁Logan	-5244
▁issues	-5245
▁Project	-5246
▁accompl	-5247
▁prisoner	-5248
▁advantage	-5249
OS	-5250
gly	-5251
kins	-5252
▁Dun	-5253
▁Nar	-5254
▁Wid	-5255
clock	-5256
▁Cool	-5257
▁Kitt	-5258
▁Team	-5259
▁bags	-5260
isions	-5261
▁Eight	-5262
▁older	-5263
▁agents	-5264
▁former	-5265
▁consult	-5266
▁funeral	-5267
▁managed	-5268
▁Sergeant	-5269
▁stronger	-5270
▁according	-5271
EM	-5272
▁Ly	-5273
aret	-5274
uled	-5275
▁Imp	-5276
▁Pass	-5277
▁grew	-5278
▁jobs	-5279
▁lake	-5280
▁mult	-5281
▁raft	-5282
▁beast	-5283
▁crowd	-5284
▁demon	-5285
▁title	-5286
utenant	-5287
▁circum	-5288
▁moments	-5289
▁selling	-5290
▁entirely	-5291
▁positive	-5292
▁Americans	-5293
▁particular	-5294
▁remembered	-5295
ula	-5296
rink	-5297
▁pee	-5298
ables	-5299
▁Andy	-5300
▁Camp	-5301
▁Dark	-5302
▁Till	-5303
▁user	-5304
▁Rohan	-5305
▁flood	-5306
▁rough	-5307
▁lesson	-5308
▁surviv	-5309
▁counter	-5310
▁Apparently	-5311
▁personally	-5312
▁Nah	-5313
▁kil	-5314
anged	-5315
iated	-5316
▁tent	-5317
▁delay	-5318
▁deser	-5319
▁Easter	-5320
▁backup	-5321
▁manage	-5322
▁releas	-5323
▁warned	-5324
▁network	-5325
▁pretend	-5326
▁behavior	-5327
▁exchange	-5328
iece	-5329
mare	-5330
ooth	-5331
ryan	-5332
they	-5333
▁Alp	-5334
▁Bus	-5335
▁Key	-5336
▁McC	-5337
▁Squ	-5338
▁Win	-5339
orter	-5340
ushed	-5341
▁Best	-5342
▁Mine	-5343
▁Vinc	-5344
▁bury	-5345
▁grav	-5346
▁opin	-5347
mother	-5348
▁alarm	-5349
▁blank	-5350
▁bound	-5351
uration	-5352
▁garden	-5353
▁shadow	-5354
▁Tonight	-5355
▁screwed	-5356
▁trusted	-5357
▁electric	-5358
▁stealing	-5359
20	-5360
AL	-5361
St	-5362
ads	-5363
addi	-5364
▁Bor	-5365
▁Shi	-5366
▁Tor	-5367
▁Yöu	-5368
▁sou	-5369
▁wid	-5370
rison	-5371
▁Deep	-5372
▁Eliz	-5373
▁Zoom	-5374
▁gear	-5375
▁scar	-5376
arthik	-5377
▁Inter	-5378
▁Krish	-5379
▁famil	-5380
▁Anjali	-5381
▁Friend	-5382
▁detail	-5383
▁signed	-5384
▁waited	-5385
▁degrees	-5386
▁photograph	-5387
isa	-5388
▁2.	-5389
▁Mem	-5390
▁Vir	-5391
abeth	-5392
▁guts	-5393
▁wash	-5394
▁assum	-5395
▁drown	-5396
▁kills	-5397
▁shown	-5398
▁Island	-5399
▁Junior	-5400
▁drinks	-5401
▁punish	-5402
▁remains	-5403
▁shoulder	-5404
▁confirmed	-5405
▁restaurant	-5406
ef	-5407
ops	-5408
They	-5409
ache	-5410
bass	-5411
case	-5412
keys	-5413
▁flo	-5414
▁Marg	-5415
▁Meet	-5416
▁Need	-5417
▁wine	-5418
▁tears	-5419
▁Others	-5420
▁rights	-5421
▁served	-5422
▁Kabaddi	-5423
▁footage	-5424
▁student	-5425
▁darkness	-5426
▁satellite	-5427
1,	-5428
IL	-5429
lan	-5430
▁ju	-5431
▁Fro	-5432
▁esp	-5433
▁Suri	-5434
▁sneak	-5435
▁castle	-5436
▁tracks	-5437
▁desktop	-5438
▁grandma	-5439
▁practice	-5440
▁otherwise	-5441
8.	-5442
tr	-5443
▁Na	-5444
▁Rey	-5445
▁Yep	-5446
▁educ	-5447
▁gods	-5448
aughty	-5449
usting	-5450
▁Brian	-5451
▁Penny	-5452
▁kinda	-5453
▁stood	-5454
▁flower	-5455
▁monkey	-5456
▁reward	-5457
▁prevent	-5458
▁provide	-5459
▁weather	-5460
▁document	-5461
',	-5462
RA	-5463
ua	-5464
She	-5465
bie	-5466
has	-5467
illa	-5468
mate	-5469
zzle	-5470
▁Gru	-5471
▁syn	-5472
▁Beck	-5473
▁Fore	-5474
▁Form	-5475
▁Gray	-5476
▁cand	-5477
▁smok	-5478
▁vote	-5479
▁shots	-5480
▁wreck	-5481
▁border	-5482
▁health	-5483
▁recomm	-5484
▁sooner	-5485
▁Desmond	-5486
▁doctors	-5487
▁product	-5488
▁sergeant	-5489
▁comfortable	-5490
2,	-5491
gle	-5492
rum	-5493
sey	-5494
urt	-5495
aine	-5496
atab	-5497
spir	-5498
thur	-5499
▁201	-5500
▁ast	-5501
▁tag	-5502
▁urg	-5503
althy	-5504
ators	-5505
useum	-5506
▁Dave	-5507
▁Init	-5508
▁circ	-5509
▁cree	-5510
▁gain	-5511
▁rate	-5512
▁tied	-5513
inting	-5514
▁Texas	-5515
▁shake	-5516
▁troub	-5517
▁Ramona	-5518
▁Second	-5519
▁Unable	-5520
▁gather	-5521
▁oxygen	-5522
▁Instead	-5523
▁torture	-5524
▁wasting	-5525
▁becoming	-5526
▁families	-5527
▁extremely	-5528
▁transport	-5529
PS	-5530
▁Sn	-5531
athi	-5532
ifty	-5533
▁Bud	-5534
▁Cam	-5535
ancho	-5536
▁tong	-5537
▁motor	-5538
▁mouse	-5539
▁stone	-5540
▁Cheers	-5541
▁System	-5542
▁defend	-5543
▁mechan	-5544
▁unique	-5545
onscious	-5546
▁Anybody	-5547
▁Neither	-5548
▁dancing	-5549
▁circumst	-5550
▁ordinary	-5551
▁interrupt	-5552
iva	-5553
mmy	-5554
▁ST	-5555
▁Cob	-5556
▁Egg	-5557
▁ens	-5558
▁jam	-5559
▁obs	-5560
▁pir	-5561
ikant	-5562
▁Ling	-5563
unction	-5564
▁Choose	-5565
▁coward	-5566
▁hardly	-5567
▁Current	-5568
▁Scofield	-5569
▁precious	-5570
oms	-5571
amin	-5572
▁Tem	-5573
▁aim	-5574
aries	-5575
▁Bull	-5576
▁Raju	-5577
▁elev	-5578
▁purs	-5579
▁Boone	-5580
▁Drive	-5581
▁Franc	-5582
pensive	-5583
▁Amanda	-5584
▁obvious	-5585
▁Gentlemen	-5586
ato	-5587
▁1.	-5588
geon	-5589
ooja	-5590
▁Kar	-5591
▁Lab	-5592
▁jew	-5593
craft	-5594
▁THAT	-5595
▁stom	-5596
▁ambul	-5597
▁liter	-5598
▁metal	-5599
▁stret	-5600
▁cancer	-5601
▁execut	-5602
▁supply	-5603
▁Austral	-5604
▁bullets	-5605
▁foreign	-5606
▁monitor	-5607
▁friendship	-5608
▁coincidence	-5609
gs	-5610
▁CH	-5611
adem	-5612
amma	-5613
oved	-5614
rick	-5615
▁Ari	-5616
,000.	-5617
▁Erik	-5618
▁Fall	-5619
▁arch	-5620
▁belt	-5621
itches	-5622
▁Angel	-5623
▁alien	-5624
▁based	-5625
▁bones	-5626
▁crown	-5627
▁nurse	-5628
▁slave	-5629
sidered	-5630
▁burned	-5631
▁chosen	-5632
▁crores	-5633
▁harder	-5634
▁propos	-5635
▁England	-5636
▁section	-5637
▁wherever	-5638
▁Excellent	-5639
▁nightmare	-5640
10	-5641
4.	-5642
ERE	-5643
met	-5644
rific	-5645
▁Bang	-5646
▁Chen	-5647
▁Push	-5648
▁dome	-5649
▁pair	-5650
▁Level	-5651
▁began	-5652
▁devil	-5653
▁score	-5654
▁Aarush	-5655
▁Steven	-5656
▁orphan	-5657
▁vision	-5658
▁becomes	-5659
▁concern	-5660
▁results	-5661
▁solution	-5662
▁convinced	-5663
▁motherfucker	-5664
aju	-5665
iots	-5666
▁Law	-5667
▁Mat	-5668
▁Mus	-5669
▁Tot	-5670
▁rot	-5671
▁uns	-5672
arily	-5673
▁Sign	-5674
▁libr	-5675
▁Teddy	-5676
▁bombs	-5677
▁loser	-5678
▁model	-5679
▁Justin	-5680
▁Vishal	-5681
▁artist	-5682
▁fuckin	-5683
▁joined	-5684
▁phones	-5685
▁unknown	-5686
▁currently	-5687
▁Understand	-5688
ube	-5689
▁Jap	-5690
▁Riz	-5691
▁abs	-5692
icked	-5693
▁Nina	-5694
▁lips	-5695
▁rise	-5696
▁vamp	-5697
▁nation	-5698
▁prince	-5699
▁repres	-5700
▁surely	-5701
▁Jaikant	-5702
▁Singham	-5703
▁bedroom	-5704
▁channel	-5705
▁opinion	-5706
▁passing	-5707
▁Margaret	-5708
▁perfectly	-5709
CE	-5710
jo	-5711
IGH	-5712
icon	-5713
orge	-5714
othy	-5715
▁300	-5716
▁Esp	-5717
▁Gal	-5718
▁Ret	-5719
acher	-5720
inals	-5721
▁chip	-5722
▁earn	-5723
▁woke	-5724
▁Irene	-5725
▁Louis	-5726
▁broad	-5727
▁legal	-5728
▁sharp	-5729
▁Bloody	-5730
▁cooper	-5731
▁dialog	-5732
▁invited	-5733
▁prepare	-5734
▁robbery	-5735
▁touched	-5736
▁hundreds	-5737
▁material	-5738
▁protection	-5739
agn	-5740
ura	-5741
ilet	-5742
ship	-5743
your	-5744
▁unp	-5745
anish	-5746
arrow	-5747
▁Base	-5748
▁Chic	-5749
▁Dest	-5750
▁Left	-5751
▁desp	-5752
ealous	-5753
▁Enjoy	-5754
▁groom	-5755
▁homes	-5756
▁stops	-5757
aturday	-5758
▁crimes	-5759
▁wishes	-5760
▁chopper	-5761
▁greater	-5762
formation	-5763
ym	-5764
ylan	-5765
▁Ain	-5766
▁Lar	-5767
▁arr	-5768
▁rum	-5769
▁scr	-5770
There	-5771
holog	-5772
▁Guru	-5773
▁Plan	-5774
▁Text	-5775
▁grid	-5776
▁Janet	-5777
▁offered	-5778
▁Elizabeth	-5779
ls	-5780
mo	-5781
lev	-5782
oted	-5783
▁Ran	-5784
▁alt	-5785
there	-5786
▁Nard	-5787
▁Dylan	-5788
▁Lauda	-5789
▁Roman	-5790
▁fairy	-5791
▁false	-5792
▁lakhs	-5793
▁medal	-5794
▁punch	-5795
▁scary	-5796
▁Couldn	-5797
▁Wonder	-5798
▁babies	-5799
▁folder	-5800
▁guests	-5801
▁insist	-5802
▁stairs	-5803
▁burning	-5804
▁fishing	-5805
▁leading	-5806
▁younger	-5807
OME	-5808
nam	-5809
ora	-5810
▁Ll	-5811
ales	-5812
oops	-5813
rict	-5814
rypt	-5815
uses	-5816
▁rup	-5817
▁bone	-5818
▁conc	-5819
▁decl	-5820
▁meal	-5821
▁myst	-5822
▁virt	-5823
▁sweat	-5824
▁intern	-5825
▁Finally	-5826
▁custody	-5827
▁engaged	-5828
▁session	-5829
▁species	-5830
▁horrible	-5831
▁instinct	-5832
▁misunder	-5833
▁separate	-5834
▁abandoned	-5835
▁explosion	-5836
▁impressed	-5837
▁including	-5838
▁considered	-5839
▁competition	-5840
15	-5841
hav	-5842
▁3.	-5843
▁ut	-5844
▁Kap	-5845
▁mum	-5846
anced	-5847
▁Book	-5848
▁Eric	-5849
▁flag	-5850
▁ugly	-5851
ateful	-5852
ingham	-5853
▁Break	-5854
▁media	-5855
▁signs	-5856
▁Arthur	-5857
▁photos	-5858
▁Install	-5859
▁ability	-5860
▁actions	-5861
▁complex	-5862
▁jealous	-5863
▁murders	-5864
▁engineer	-5865
▁machines	-5866
▁partners	-5867
▁ambulance	-5868
▁professional	-5869
box	-5870
urs	-5871
▁%2	-5872
dney	-5873
gree	-5874
ping	-5875
uild	-5876
▁row	-5877
orted	-5878
▁Real	-5879
▁Wood	-5880
arsing	-5881
▁Prime	-5882
▁awake	-5883
▁brand	-5884
▁dozen	-5885
▁trace	-5886
▁Cassie	-5887
▁Mexico	-5888
▁assure	-5889
▁coordin	-5890
▁corrupt	-5891
▁fingers	-5892
▁growing	-5893
▁changing	-5894
▁expensive	-5895
ez	-5896
oom	-5897
▁Rud	-5898
▁fro	-5899
▁pit	-5900
antly	-5901
phone	-5902
uable	-5903
▁Read	-5904
▁Room	-5905
▁kitt	-5906
▁mole	-5907
▁mort	-5908
colate	-5909
▁coast	-5910
▁habit	-5911
▁joking	-5912
▁smells	-5913
▁tongue	-5914
▁delivery	-5915
▁identify	-5916
▁According	-5917
▁background	-5918
▁engagement	-5919
▁LA	-5920
athy	-5921
osit	-5922
pass	-5923
▁pub	-5924
otted	-5925
▁Hind	-5926
▁Mach	-5927
▁Prep	-5928
▁cage	-5929
▁coat	-5930
▁loan	-5931
▁seek	-5932
▁Azhar	-5933
▁Jones	-5934
▁angel	-5935
▁trial	-5936
▁caused	-5937
▁loaded	-5938
▁Looking	-5939
▁naughty	-5940
▁removed	-5941
▁sheriff	-5942
▁football	-5943
▁presence	-5944
eau	-5945
gum	-5946
rah	-5947
imus	-5948
ivid	-5949
▁shy	-5950
arian	-5951
ctory	-5952
istan	-5953
▁Also	-5954
▁Niki	-5955
▁lone	-5956
▁sons	-5957
▁Japan	-5958
▁lower	-5959
atabase	-5960
istence	-5961
▁Sanjay	-5962
▁Jasmine	-5963
▁hurting	-5964
▁letters	-5965
▁regular	-5966
▁decisions	-5967
9,	-5968
fl	-5969
▁et	-5970
▁fe	-5971
abad	-5972
imin	-5973
rain	-5974
stit	-5975
▁Rom	-5976
▁Tal	-5977
▁bri	-5978
▁Land	-5979
▁Nope	-5980
▁lack	-5981
ission	-5982
▁cells	-5983
▁falls	-5984
▁grave	-5985
▁twist	-5986
venture	-5987
▁Twenty	-5988
▁desire	-5989
▁detect	-5990
▁height	-5991
▁spoken	-5992
standing	-5993
▁chasing	-5994
▁systems	-5995
▁chemical	-5996
▁Obviously	-5997
▁agreement	-5998
▁potential	-5999
).	-6000
bl	-6001
acc	-6002
uta	-6003
bage	-6004
▁tip	-6005
plete	-6006
utter	-6007
▁View	-6008
▁liqu	-6009
▁role	-6010
▁shed	-6011
ipping	-6012
isible	-6013
render	-6014
▁Ellis	-6015
▁Found	-6016
▁Going	-6017
▁Lloyd	-6018
▁badly	-6019
▁bride	-6020
▁nandu	-6021
udheera	-6022
▁Sydney	-6023
▁decent	-6024
▁module	-6025
▁winter	-6026
▁Chicago	-6027
▁Goddamn	-6028
▁curious	-6029
▁however	-6030
▁singing	-6031
▁surgery	-6032
▁statement	-6033
▁Marudheera	-6034
amy	-6035
ann	-6036
▁22	-6037
jana	-6038
omen	-6039
▁Div	-6040
▁sed	-6041
agers	-6042
andom	-6043
vable	-6044
▁Code	-6045
▁Hall	-6046
▁Lost	-6047
▁Mond	-6048
▁boot	-6049
▁dust	-6050
▁Carly	-6051
▁Child	-6052
▁Money	-6053
▁Shank	-6054
▁usual	-6055
▁arrive	-6056
▁proced	-6057
▁suffer	-6058
▁version	-6059
▁guessing	-6060
agle	-6061
iley	-6062
Thank	-6063
ureau	-6064
▁Nemo	-6065
▁Vard	-6066
▁crit	-6067
▁dise	-6068
▁plat	-6069
onquer	-6070
▁Cover	-6071
▁frame	-6072
▁fruit	-6073
▁ought	-6074
▁Module	-6075
▁Switch	-6076
iversity	-6077
▁Grandma	-6078
▁chances	-6079
▁cleared	-6080
▁stomach	-6081
▁Saturday	-6082
▁believes	-6083
▁cleaning	-6084
▁entrance	-6085
▁software	-6086
hil	-6087
▁23	-6088
▁Mu	-6089
name	-6090
rell	-6091
town	-6092
▁coc	-6093
▁max	-6094
▁Aunt	-6095
▁Jose	-6096
▁lamp	-6097
▁Being	-6098
▁entry	-6099
▁ideas	-6100
▁recru	-6101
▁relig	-6102
▁dealing	-6103
▁shelter	-6104
▁attitude	-6105
▁instruct	-6106
▁perimeter	-6107
▁Especially	-6108
hatt	-6109
▁Pay	-6110
▁ate	-6111
▁bid	-6112
▁web	-6113
▁Dick	-6114
▁dece	-6115
▁rope	-6116
iments	-6117
vision	-6118
▁Chang	-6119
▁Chitt	-6120
▁grant	-6121
▁mixed	-6122
▁plate	-6123
▁polic	-6124
▁tiger	-6125
▁Message	-6126
▁fortune	-6127
▁released	-6128
▁mountains	-6129
▁circumstances	-6130
6,	-6131
dog	-6132
ste	-6133
▁rab	-6134
apped	-6135
istic	-6136
▁Ajay	-6137
▁Nine	-6138
▁Nort	-6139
▁junk	-6140
▁male	-6141
▁qual	-6142
▁Wells	-6143
▁delic	-6144
▁limit	-6145
▁royal	-6146
▁Howard	-6147
▁female	-6148
▁reject	-6149
▁slowly	-6150
▁stress	-6151
▁Dorothy	-6152
▁Options	-6153
▁Princess	-6154
▁creature	-6155
▁challenge	-6156
▁insurance	-6157
▁environment	-6158
rid	-6159
▁NO	-6160
▁SP	-6161
sequ	-6162
▁Cas	-6163
▁Den	-6164
▁Emm	-6165
▁Brun	-6166
▁Face	-6167
▁Lane	-6168
▁eggs	-6169
▁sink	-6170
▁spin	-6171
coming	-6172
▁Aryan	-6173
▁Bablu	-6174
▁Bruce	-6175
▁awful	-6176
▁drove	-6177
▁negot	-6178
▁Friday	-6179
▁boring	-6180
▁dragon	-6181
▁fright	-6182
▁shield	-6183
alentine	-6184
▁Getting	-6185
▁century	-6186
▁charges	-6187
▁concent	-6188
iguration	-6189
▁treasure	-6190
▁threatened	-6191
▁Unfortunately	-6192
kar	-6193
ctic	-6194
iana	-6195
vere	-6196
▁199	-6197
▁Bon	-6198
▁Jed	-6199
▁doc	-6200
▁hyp	-6201
agger	-6202
force	-6203
▁Karl	-6204
▁Part	-6205
▁Poor	-6206
ashion	-6207
▁Enter	-6208
▁Helen	-6209
▁Lucky	-6210
▁Might	-6211
▁Murph	-6212
▁shape	-6213
▁snake	-6214
▁swing	-6215
▁Anjuta	-6216
▁Monday	-6217
▁brains	-6218
▁buying	-6219
▁corpor	-6220
▁images	-6221
▁regist	-6222
▁Promise	-6223
▁proceed	-6224
▁approach	-6225
▁monsters	-6226
▁settings	-6227
▁violence	-6228
▁Inspector	-6229
▁confident	-6230
▁criminals	-6231
▁especially	-6232
▁underground	-6233
",	-6234
hm	-6235
▁Lo	-6236
▁Pan	-6237
▁Sch	-6238
▁lam	-6239
icket	-6240
overy	-6241
▁Bern	-6242
▁Jean	-6243
▁Many	-6244
▁Seth	-6245
▁bunk	-6246
▁doin	-6247
▁edge	-6248
▁flow	-6249
▁goin	-6250
▁hits	-6251
▁pink	-6252
▁Pooja	-6253
▁lands	-6254
▁minds	-6255
▁panic	-6256
▁trunk	-6257
▁Sunday	-6258
▁jacket	-6259
▁silent	-6260
▁transl	-6261
▁underw	-6262
▁waters	-6263
▁Stephen	-6264
▁factory	-6265
▁failure	-6266
▁mystery	-6267
▁society	-6268
▁national	-6269
▁childhood	-6270
▁appointment	-6271
▁description	-6272
▁21	-6273
hant	-6274
▁"..	-6275
▁Amy	-6276
▁Lib	-6277
▁flu	-6278
▁rit	-6279
▁Bomb	-6280
▁Imag	-6281
▁calc	-6282
▁cult	-6283
▁laid	-6284
▁meat	-6285
▁pure	-6286
▁wand	-6287
▁River	-6288
▁candy	-6289
▁naked	-6290
hington	-6291
▁Chitti	-6292
▁indeed	-6293
▁levels	-6294
▁thirst	-6295
▁tricks	-6296
▁federal	-6297
▁quarter	-6298
▁treated	-6299
▁violent	-6300
▁counting	-6301
▁valuable	-6302
▁guarantee	-6303
▁resources	-6304
▁survivors	-6305
▁conditions	-6306
▁discovered	-6307
▁performance	-6308
Man	-6309
aya	-6310
isf	-6311
sec	-6312
▁90	-6313
ague	-6314
elia	-6315
inic	-6316
iped	-6317
▁Ext	-6318
▁unf	-6319
▁Beat	-6320
▁dawn	-6321
▁hous	-6322
▁mode	-6323
▁items	-6324
idering	-6325
▁circle	-6326
▁collea	-6327
▁psycho	-6328
▁toilet	-6329
onqueror	-6330
▁Narsing	-6331
▁digging	-6332
▁library	-6333
▁someday	-6334
▁Director	-6335
▁physical	-6336
▁desperate	-6337
▁suffering	-6338
▁classified	-6339
▁conference	-6340
bey	-6341
▁NY	-6342
▁py	-6343
ifer	-6344
▁Tab	-6345
▁hob	-6346
▁Answ	-6347
▁Lake	-6348
▁Palm	-6349
▁core	-6350
▁Throw	-6351
▁sugar	-6352
ability	-6353
▁intend	-6354
▁jumped	-6355
▁period	-6356
▁pounds	-6357
▁retire	-6358
▁Angeles	-6359
▁Shouldn	-6360
▁Unknown	-6361
▁beloved	-6362
▁default	-6363
▁warrant	-6364
▁announce	-6365
▁elevator	-6366
▁patients	-6367
▁treatment	-6368
▁Washington	-6369
▁protecting	-6370
ww	-6371
ext	-6372
iko	-6373
elle	-6374
jack	-6375
ynam	-6376
▁Bil	-6377
▁Kid	-6378
▁der	-6379
▁htt	-6380
aging	-6381
break	-6382
usual	-6383
▁Drag	-6384
▁Fitz	-6385
▁Half	-6386
▁Lisa	-6387
▁Mean	-6388
▁Prot	-6389
▁firm	-6390
▁China	-6391
▁cheek	-6392
▁guide	-6393
▁notes	-6394
▁wings	-6395
▁Marcus	-6396
▁Shashi	-6397
▁forces	-6398
▁method	-6399
▁unable	-6400
▁However	-6401
▁begging	-6402
▁garbage	-6403
▁freaking	-6404
▁schedule	-6405
▁activated	-6406
▁documents	-6407
▁Lieutenant	-6408
LD	-6409
hop	-6410
fire	-6411
ravo	-6412
wich	-6413
▁Neg	-6414
▁Tha	-6415
▁Top	-6416
▁hel	-6417
▁piz	-6418
celer	-6419
ograp	-6420
storm	-6421
verse	-6422
▁Renu	-6423
▁chef	-6424
▁clue	-6425
▁craw	-6426
▁mama	-6427
▁melt	-6428
▁yaar	-6429
▁Karen	-6430
▁caves	-6431
▁chase	-6432
▁obser	-6433
▁actual	-6434
▁events	-6435
▁kidney	-6436
▁mirror	-6437
▁skills	-6438
▁blowing	-6439
▁depends	-6440
▁require	-6441
▁maintain	-6442
▁community	-6443
▁scientist	-6444
RL	-6445
eb	-6446
▁wa	-6447
▁Ori	-6448
▁cod	-6449
▁ded	-6450
▁jer	-6451
itors	-6452
osaur	-6453
▁Kind	-6454
▁sync	-6455
urning	-6456
▁Varda	-6457
▁adult	-6458
▁deton	-6459
▁theme	-6460
▁whist	-6461
▁Number	-6462
▁slight	-6463
▁ancient	-6464
▁infected	-6465
▁mistakes	-6466
▁throwing	-6467
▁gentleman	-6468
▁downstairs	-6469
gun	-6470
huh	-6471
sit	-6472
▁Sk	-6473
gard	-6474
vell	-6475
▁Ken	-6476
▁Nat	-6477
▁ali	-6478
▁emp	-6479
▁Date	-6480
▁Owen	-6481
▁Supp	-6482
▁WHAT	-6483
▁acqu	-6484
▁babe	-6485
▁hors	-6486
▁wing	-6487
▁Bravo	-6488
▁Court	-6489
▁Erica	-6490
▁Linda	-6491
▁Ocean	-6492
▁Power	-6493
▁Shrek	-6494
▁Tracy	-6495
▁cheat	-6496
▁eaten	-6497
▁newsp	-6498
▁oppos	-6499
▁slept	-6500
gusting	-6501
▁Freeze	-6502
▁resist	-6503
▁riding	-6504
▁therap	-6505
▁update	-6506
▁volunt	-6507
atically	-6508
▁Bernard	-6509
▁Gregson	-6510
▁Vincent	-6511
▁pushing	-6512
▁Although	-6513
▁betrayed	-6514
▁required	-6515
unz	-6516
oret	-6517
ript	-6518
tell	-6519
▁Bee	-6520
▁Gra	-6521
▁Sky	-6522
▁sew	-6523
riots	-6524
▁Ring	-6525
▁buff	-6526
▁menu	-6527
▁merc	-6528
▁mere	-6529
▁sett	-6530
▁Crazy	-6531
▁Short	-6532
▁analy	-6533
▁psych	-6534
▁stays	-6535
▁Connie	-6536
▁exists	-6537
▁legend	-6538
▁recover	-6539
▁succeed	-6540
▁Internet	-6541
▁Attention	-6542
egr	-6543
When	-6544
agon	-6545
ianc	-6546
▁Alb	-6547
hamed	-6548
▁Lies	-6549
▁http	-6550
▁laws	-6551
▁maid	-6552
▁puts	-6553
▁soup	-6554
▁tech	-6555
icking	-6556
ivered	-6557
▁Breat	-6558
▁Ghost	-6559
▁Group	-6560
▁fancy	-6561
▁lifet	-6562
▁stink	-6563
▁Create	-6564
▁latest	-6565
▁recent	-6566
▁safely	-6567
▁smooth	-6568
▁Raymond	-6569
▁conduct	-6570
▁elephan	-6571
▁villain	-6572
▁experien	-6573
▁eventually	-6574
▁understanding	-6575
AP	-6576
elp	-6577
hot	-6578
▁KN	-6579
ipal	-6580
▁Ele	-6581
▁Mia	-6582
ained	-6583
▁Devi	-6584
▁Dhar	-6585
▁Fisc	-6586
▁Said	-6587
▁Harris	-6588
▁Lovely	-6589
▁Secret	-6590
▁clever	-6591
▁invite	-6592
▁meteor	-6593
ordinary	-6594
▁Fischer	-6595
▁Imagine	-6596
▁Manager	-6597
▁balance	-6598
▁similar	-6599
▁arranged	-6600
▁midnight	-6601
▁services	-6602
▁intention	-6603
▁literally	-6604
▁screaming	-6605
▁impressive	-6606
OOD	-6607
alth	-6608
▁Dur	-6609
▁Pac	-6610
▁Pur	-6611
▁rig	-6612
▁ult	-6613
Where	-6614
▁alco	-6615
▁bang	-6616
▁odds	-6617
▁wide	-6618
verton	-6619
▁Fight	-6620
▁Faster	-6621
▁degree	-6622
▁editor	-6623
▁lately	-6624
▁robbed	-6625
▁Shankar	-6626
▁disease	-6627
▁basement	-6628
▁grateful	-6629
▁answering	-6630
▁chocolate	-6631
▁existence	-6632
▁inspector	-6633
UN	-6634
nis	-6635
omi	-6636
pse	-6637
raq	-6638
▁42	-6639
▁NOT	-6640
▁fra	-6641
▁Done	-6642
▁Joan	-6643
▁impl	-6644
▁root	-6645
cholog	-6646
▁Lizzy	-6647
▁Pleas	-6648
▁cloud	-6649
▁flesh	-6650
▁pages	-6651
ertific	-6652
▁Govern	-6653
▁pissed	-6654
▁spring	-6655
▁crossed	-6656
▁wounded	-6657
▁assassin	-6658
▁priority	-6659
▁survival	-6660
▁touching	-6661
▁Configure	-6662
▁Konqueror	-6663
▁Milverton	-6664
nu	-6665
avi	-6666
iry	-6667
nai	-6668
rak	-6669
aina	-6670
fall	-6671
gypt	-6672
imal	-6673
▁ben	-6674
field	-6675
gment	-6676
ieves	-6677
▁drum	-6678
▁wise	-6679
ensive	-6680
stable	-6681
▁Brook	-6682
▁Egypt	-6683
▁ashes	-6684
▁helps	-6685
▁princ	-6686
▁suits	-6687
▁player	-6688
▁rupees	-6689
▁visual	-6690
▁ashamed	-6691
▁cooking	-6692
▁express	-6693
▁individ	-6694
▁injured	-6695
▁winning	-6696
▁accepted	-6697
▁activity	-6698
▁goodness	-6699
▁offering	-6700
▁standard	-6701
▁vacation	-6702
▁blackmail	-6703
▁personnel	-6704
▁commission	-6705
▁experiment	-6706
sm	-6707
nec	-6708
tor	-6709
▁45	-6710
Just	-6711
five	-6712
lead	-6713
obal	-6714
▁Atl	-6715
▁Cou	-6716
▁Stu	-6717
▁Ugh	-6718
▁Val	-6719
asing	-6720
bassy	-6721
olves	-6722
ourke	-6723
▁Damu	-6724
▁Dist	-6725
▁Hans	-6726
▁Iraq	-6727
▁thin	-6728
▁zone	-6729
▁Stark	-6730
▁safer	-6731
▁Failed	-6732
▁Rourke	-6733
▁Spider	-6734
▁beaten	-6735
▁impact	-6736
▁pushed	-6737
▁sample	-6738
▁tempor	-6739
▁Prepare	-6740
▁landing	-6741
▁Franklin	-6742
▁freezing	-6743
▁selection	-6744
te	-6745
ARS	-6746
Who	-6747
ito	-6748
vor	-6749
zed	-6750
▁Ya	-6751
onse	-6752
when	-6753
▁cub	-6754
cript	-6755
▁Isab	-6756
▁NYPD	-6757
▁Rest	-6758
▁dirt	-6759
▁elop	-6760
arters	-6761
engers	-6762
▁Eggsy	-6763
▁Percy	-6764
▁exerc	-6765
▁trash	-6766
ception	-6767
estival	-6768
▁Answer	-6769
▁Delete	-6770
▁random	-6771
▁review	-6772
▁Chennai	-6773
▁Perfect	-6774
▁hostage	-6775
▁popular	-6776
▁Australia	-6777
▁Valentine	-6778
▁creatures	-6779
IP	-6780
ango	-6781
ecil	-6782
▁Din	-6783
▁Jen	-6784
▁dim	-6785
▁san	-6786
inter	-6787
utala	-6788
▁Iran	-6789
▁Shad	-6790
▁fold	-6791
▁inqu	-6792
▁nest	-6793
▁redu	-6794
active	-6795
alking	-6796
▁fianc	-6797
▁frequ	-6798
▁grass	-6799
▁youth	-6800
▁Harold	-6801
▁Stupid	-6802
▁agency	-6803
▁escort	-6804
▁idiots	-6805
▁recall	-6806
▁disturb	-6807
▁healthy	-6808
▁Chautala	-6809
▁interrog	-6810
▁romantic	-6811
▁teaching	-6812
▁delivered	-6813
▁requested	-6814
▁revolution	-6815
▁neighborhood	-6816
KE	-6817
cow	-6818
pet	-6819
▁Ge	-6820
▁Ta	-6821
elve	-6822
ront	-6823
▁Nag	-6824
▁Rat	-6825
▁Yas	-6826
▁hmm	-6827
epend	-6828
orage	-6829
peror	-6830
▁cure	-6831
▁debt	-6832
▁scen	-6833
▁trop	-6834
▁Idiot	-6835
▁Quite	-6836
▁drama	-6837
▁refer	-6838
▁sober	-6839
▁Thirty	-6840
▁cheese	-6841
▁social	-6842
▁winner	-6843
▁acceler	-6844
▁highest	-6845
▁journal	-6846
▁replace	-6847
▁rescued	-6848
▁sisters	-6849
▁cheating	-6850
▁weakness	-6851
▁Alexander	-6852
▁represent	-6853
Con	-6854
Get	-6855
TER	-6856
ador	-6857
heme	-6858
inja	-6859
iper	-6860
niss	-6861
ours	-6862
▁Lat	-6863
▁eld	-6864
▁obl	-6865
icons	-6866
▁Gold	-6867
▁Thor	-6868
▁appl	-6869
▁dive	-6870
▁fart	-6871
▁rude	-6872
▁slip	-6873
igning	-6874
▁Danny	-6875
▁smugg	-6876
▁teams	-6877
▁Palmer	-6878
▁Ronnie	-6879
▁Trying	-6880
▁ignore	-6881
▁insult	-6882
▁neighb	-6883
▁symbol	-6884
ferences	-6885
▁Contact	-6886
▁Katniss	-6887
▁beneath	-6888
▁genetic	-6889
▁glasses	-6890
▁unusual	-6891
▁stations	-6892
▁supplies	-6893
▁cigarette	-6894
▁communication	-6895
rr	-6896
vy	-6897
hoo	-6898
▁DO	-6899
aura	-6900
away	-6901
nome	-6902
▁Jar	-6903
▁Mum	-6904
▁Pak	-6905
▁gay	-6906
▁Been	-6907
▁Evan	-6908
▁asks	-6909
▁slap	-6910
verage	-6911
▁Autob	-6912
▁Gonna	-6913
▁Laura	-6914
▁Sleep	-6915
▁Tower	-6916
▁ships	-6917
▁veget	-6918
▁Honest	-6919
▁Miller	-6920
▁Target	-6921
▁lonely	-6922
▁mobile	-6923
▁amongst	-6924
▁thieves	-6925
▁baseball	-6926
▁everyday	-6927
▁occasion	-6928
▁swimming	-6929
▁installed	-6930
▁protected	-6931
▁surrender	-6932
RO	-6933
had	-6934
ola	-6935
oye	-6936
ateg	-6937
essa	-6938
▁Cat	-6939
▁Ohh	-6940
▁Tel	-6941
▁lad	-6942
▁lob	-6943
▁ton	-6944
aling	-6945
bound	-6946
ensed	-6947
▁Mont	-6948
▁Navy	-6949
▁Pink	-6950
▁Wasn	-6951
itched	-6952
▁Error	-6953
▁aunty	-6954
▁Wouldn	-6955
▁blocks	-6956
▁Station	-6957
▁choices	-6958
▁karthik	-6959
▁prayers	-6960
▁contains	-6961
▁sentence	-6962
▁authority	-6963
▁extraordinary	-6964
7,	-6965
gl	-6966
iy	-6967
fle	-6968
imb	-6969
orp	-6970
see	-6971
▁du	-6972
▁Cir	-6973
▁Jew	-6974
▁lif	-6975
▁rip	-6976
eland	-6977
orney	-6978
ously	-6979
▁Beet	-6980
▁Boys	-6981
action	-6982
utiful	-6983
▁Wrong	-6984
▁depth	-6985
▁pizza	-6986
▁roads	-6987
▁Genius	-6988
▁laptop	-6989
▁square	-6990
▁struct	-6991
ications	-6992
▁missile	-6993
▁planted	-6994
▁politic	-6995
▁refused	-6996
▁related	-6997
▁victory	-6998
▁citizens	-6999
▁database	-7000
▁dinosaur	-7001
▁students	-7002
▁suspects	-7003
▁conscious	-7004
Cl	-7005
oard	-7006
udes	-7007
▁Bay	-7008
▁Gab	-7009
▁Mel	-7010
▁Vol	-7011
▁hom	-7012
▁Comm	-7013
▁Expl	-7014
▁Note	-7015
▁Rand	-7016
▁dock	-7017
▁Cross	-7018
▁Julia	-7019
▁brown	-7020
▁gates	-7021
▁holes	-7022
▁influ	-7023
▁stake	-7024
▁whore	-7025
imately	-7026
▁Kapoor	-7027
▁Rizvan	-7028
▁affair	-7029
▁cities	-7030
▁messed	-7031
▁museum	-7032
▁sealed	-7033
▁comprom	-7034
▁divorce	-7035
▁commander	-7036
▁emotional	-7037
▁returning	-7038
▁surrounded	-7039
TS	-7040
uj	-7041
rip	-7042
▁70	-7043
▁Hm	-7044
▁SO	-7045
ette	-7046
iner	-7047
list	-7048
look	-7049
▁Cab	-7050
▁Sud	-7051
acing	-7052
point	-7053
stone	-7054
venue	-7055
▁Asia	-7056
▁Bhar	-7057
▁Cong	-7058
▁Gene	-7059
▁Gust	-7060
▁Main	-7061
▁True	-7062
pected	-7063
▁Gotta	-7064
▁Kelly	-7065
▁Wanna	-7066
▁argum	-7067
▁drone	-7068
▁noble	-7069
▁patch	-7070
▁plays	-7071
▁Enable	-7072
▁aboard	-7073
▁altern	-7074
▁dealer	-7075
▁golden	-7076
▁regard	-7077
▁Correct	-7078
▁Thunder	-7079
▁attacks	-7080
▁extract	-7081
▁largest	-7082
▁politics	-7083
▁officially	-7084
▁passengers	-7085
▁authorities	-7086
zo	-7087
iac	-7088
▁(%	-7089
▁48	-7090
▁91	-7091
▁AS	-7092
▁Arm	-7093
▁Emp	-7094
▁dea	-7095
▁pul	-7096
ester	-7097
olved	-7098
▁Crew	-7099
▁Jump	-7100
▁Wade	-7101
▁prim	-7102
otions	-7103
ulting	-7104
▁Champ	-7105
▁Stick	-7106
▁apply	-7107
▁scent	-7108
▁sides	-7109
inating	-7110
ruption	-7111
▁Mister	-7112
▁combat	-7113
▁horses	-7114
▁loving	-7115
▁server	-7116
▁silver	-7117
▁solved	-7118
▁consequ	-7119
▁gravity	-7120
▁quietly	-7121
▁exciting	-7122
▁operating	-7123
▁psycholog	-7124
rs	-7125
ami	-7126
hia	-7127
hra	-7128
▁Od	-7129
▁Pa	-7130
hall	-7131
iona	-7132
lace	-7133
▁120	-7134
▁Gib	-7135
akesh	-7136
belie	-7137
▁Dory	-7138
▁Earl	-7139
▁Jess	-7140
▁Type	-7141
▁heir	-7142
▁leak	-7143
▁pier	-7144
▁sequ	-7145
astian	-7146
uesday	-7147
ulated	-7148
▁Heavy	-7149
▁Santa	-7150
▁begun	-7151
▁fonts	-7152
▁jewel	-7153
▁plain	-7154
▁squad	-7155
▁dating	-7156
▁defeat	-7157
▁drones	-7158
▁formal	-7159
▁satisf	-7160
▁Breathe	-7161
▁benefit	-7162
▁leaders	-7163
▁shortly	-7164
▁National	-7165
▁learning	-7166
ertificate	-7167
▁companion	-7168
▁effective	-7169
bits	-7170
burg	-7171
hase	-7172
▁Nad	-7173
▁Oct	-7174
ivity	-7175
▁Game	-7176
▁Kore	-7177
▁Noah	-7178
▁Wild	-7179
▁pump	-7180
▁taxi	-7181
▁wolf	-7182
apping	-7183
▁Bruno	-7184
▁Clean	-7185
▁cheap	-7186
▁dynam	-7187
▁kinds	-7188
▁toast	-7189
Singham	-7190
▁Church	-7191
▁Moscow	-7192
▁Rakesh	-7193
▁collap	-7194
▁sweets	-7195
▁toward	-7196
▁Mandira	-7197
▁foolish	-7198
▁policem	-7199
▁Whenever	-7200
▁lifetime	-7201
▁negative	-7202
▁response	-7203
▁strangers	-7204
▁population	-7205
▁Information	-7206
▁transferred	-7207
UCK	-7208
ifth	-7209
▁Web	-7210
▁hid	-7211
▁mug	-7212
▁wra	-7213
jamin	-7214
oster	-7215
▁Arab	-7216
▁Font	-7217
▁Roll	-7218
▁Spir	-7219
▁Stat	-7220
▁Uday	-7221
▁clan	-7222
▁unex	-7223
ubborn	-7224
vation	-7225
▁Fiona	-7226
▁belie	-7227
▁seats	-7228
▁sport	-7229
▁uncom	-7230
ennifer	-7231
▁earned	-7232
▁ghosts	-7233
▁intent	-7234
▁script	-7235
▁tablet	-7236
▁Burrows	-7237
▁Highness	-7238
▁mistaken	-7239
▁occurred	-7240
▁sacrific	-7241
▁struggle	-7242
▁visiting	-7243
▁Yesterday	-7244
▁assignment	-7245
TH	-7246
ggy	-7247
▁Tob	-7248
▁lit	-7249
ookie	-7250
raise	-7251
▁Kyle	-7252
▁Stig	-7253
▁bars	-7254
▁cant	-7255
▁chap	-7256
▁prey	-7257
▁Color	-7258
▁Honor	-7259
▁Naina	-7260
▁Order	-7261
▁Press	-7262
▁blown	-7263
▁estab	-7264
▁fever	-7265
▁mommy	-7266
▁pride	-7267
▁Dorian	-7268
▁Liesel	-7269
▁Nichol	-7270
▁houses	-7271
▁placed	-7272
▁struck	-7273
▁thrown	-7274
▁Setting	-7275
▁Tuesday	-7276
▁carried	-7277
▁slipped	-7278
▁smarter	-7279
▁entering	-7280
▁reaction	-7281
▁terminal	-7282
▁basically	-7283
▁entertain	-7284
▁invisible	-7285
▁photograp	-7286
▁grandmother	-7287
▁applications	-7288
▁disappointed	-7289
Do	-7290
Sp	-7291
why	-7292
aval	-7293
eeta	-7294
hara	-7295
ived	-7296
ural	-7297
▁Die	-7298
▁Lin	-7299
▁gut	-7300
▁nut	-7301
▁wow	-7302
inity	-7303
istry	-7304
oyees	-7305
▁Deal	-7306
▁Gard	-7307
▁Glad	-7308
▁Hill	-7309
▁frag	-7310
▁Eagle	-7311
▁Sound	-7312
▁Stone	-7313
▁Tyler	-7314
▁boots	-7315
▁cargo	-7316
▁comin	-7317
▁fools	-7318
▁pills	-7319
ployees	-7320
▁Carter	-7321
▁explan	-7322
▁myster	-7323
▁stands	-7324
▁unlike	-7325
▁effects	-7326
▁humanity	-7327
▁Beautiful	-7328
▁approaching	-7329
▁destruction	-7330
wr	-7331
aus	-7332
ipl	-7333
rot	-7334
she	-7335
hero	-7336
lers	-7337
ouch	-7338
riot	-7339
▁Aud	-7340
▁Bal	-7341
▁Eve	-7342
▁Fed	-7343
▁Tit	-7344
ascal	-7345
ivate	-7346
izard	-7347
▁Dugg	-7348
▁Path	-7349
▁Swan	-7350
▁bask	-7351
▁bump	-7352
▁deny	-7353
▁wins	-7354
▁Cecil	-7355
▁Naomi	-7356
▁Nardo	-7357
▁bread	-7358
▁clown	-7359
▁gifts	-7360
▁steel	-7361
▁Edward	-7362
▁Source	-7363
▁Trevor	-7364
▁begins	-7365
▁behalf	-7366
▁landed	-7367
▁limits	-7368
▁mental	-7369
▁series	-7370
▁Widmore	-7371
▁assault	-7372
▁offense	-7373
▁passion	-7374
▁smiling	-7375
▁dropping	-7376
▁homework	-7377
▁previous	-7378
▁apparently	-7379
▁successful	-7380
Ar	-7381
As	-7382
EC	-7383
If	-7384
So	-7385
aws	-7386
rad	-7387
run	-7388
▁AT	-7389
agne	-7390
izes	-7391
lynn	-7392
mons	-7393
take	-7394
uits	-7395
▁Fox	-7396
▁Pen	-7397
▁Ven	-7398
▁mal	-7399
▁mud	-7400
▁sav	-7401
▁tub	-7402
brace	-7403
cover	-7404
▁Avat	-7405
▁Burn	-7406
▁Line	-7407
▁User	-7408
▁bhai	-7409
▁cris	-7410
▁lion	-7411
▁rail	-7412
▁wipe	-7413
iative	-7414
▁Chris	-7415
▁Ender	-7416
▁Lance	-7417
▁manip	-7418
▁rooms	-7419
▁Cannot	-7420
▁Freddy	-7421
▁eloped	-7422
▁heroes	-7423
▁mostly	-7424
▁refuse	-7425
▁repair	-7426
▁steady	-7427
▁Gandalf	-7428
▁Service	-7429
▁hostile	-7430
▁payment	-7431
▁tattoos	-7432
▁Russians	-7433
▁pointing	-7434
▁possibility	-7435
▁organization	-7436
EE	-7437
mi	-7438
hips	-7439
mann	-7440
pana	-7441
uffs	-7442
uing	-7443
▁Pal	-7444
▁Pun	-7445
▁ace	-7446
▁suf	-7447
eless	-7448
holes	-7449
▁Cast	-7450
▁Nell	-7451
▁Scan	-7452
▁Girls	-7453
▁Woman	-7454
▁nasty	-7455
▁troops	-7456
▁upload	-7457
▁Gusteau	-7458
▁Kalpana	-7459
▁Benjamin	-7460
▁Nicholas	-7461
▁fantastic	-7462
▁international	-7463
AA	-7464
Th	-7465
ded	-7466
enc	-7467
job	-7468
ota	-7469
tin	-7470
▁26	-7471
▁Eh	-7472
IGHT	-7473
asha	-7474
itol	-7475
▁Alf	-7476
▁NAS	-7477
▁Naz	-7478
▁ess	-7479
▁nep	-7480
enger	-7481
erald	-7482
isher	-7483
▁"...	-7484
▁Nash	-7485
▁Nora	-7486
▁bail	-7487
▁forb	-7488
▁heck	-7489
▁rear	-7490
▁vacc	-7491
ocking	-7492
▁Allow	-7493
▁Cisco	-7494
▁Larry	-7495
▁Tamil	-7496
▁Young	-7497
▁blade	-7498
▁daily	-7499
▁decor	-7500
▁whale	-7501
▁Barnes	-7502
▁Batman	-7503
▁indust	-7504
▁planes	-7505
▁Johnson	-7506
▁capture	-7507
▁spotted	-7508
▁Jennifer	-7509
▁captured	-7510
▁shouting	-7511
▁suffered	-7512
believable	-7513
▁professor	-7514
▁instructions	-7515
bro	-7516
▁AL	-7517
aday	-7518
anks	-7519
fish	-7520
know	-7521
peed	-7522
▁12.	-7523
▁Han	-7524
▁Rod	-7525
▁Var	-7526
▁toy	-7527
ashes	-7528
iraju	-7529
usive	-7530
▁Club	-7531
▁Pack	-7532
▁Took	-7533
▁exha	-7534
▁filt	-7535
▁hers	-7536
▁insp	-7537
▁perf	-7538
▁plus	-7539
itable	-7540
▁Debug	-7541
▁Funny	-7542
▁Lucia	-7543
▁Mason	-7544
▁Ronan	-7545
▁brush	-7546
▁costs	-7547
▁hoped	-7548
▁thumb	-7549
▁walks	-7550
▁Author	-7551
▁Finish	-7552
▁Simran	-7553
▁passes	-7554
▁patrol	-7555
▁sorrow	-7556
▁urgent	-7557
▁values	-7558
▁Sanjana	-7559
▁costume	-7560
▁happily	-7561
▁pleased	-7562
▁travell	-7563
▁deserves	-7564
▁emotions	-7565
▁enjoying	-7566
▁studying	-7567
▁Machiraju	-7568
▁compromised	-7569
▁considering	-7570
Is	-7571
ANK	-7572
For	-7573
ati	-7574
vis	-7575
was	-7576
▁PK	-7577
adam	-7578
arts	-7579
ello	-7580
lord	-7581
mans	-7582
utch	-7583
vate	-7584
▁Blu	-7585
inder	-7586
onent	-7587
ropri	-7588
ufact	-7589
usted	-7590
▁Kick	-7591
▁hire	-7592
▁laun	-7593
▁poet	-7594
▁reck	-7595
▁rose	-7596
▁sets	-7597
▁tend	-7598
estern	-7599
unting	-7600
vember	-7601
▁Alpha	-7602
▁Dance	-7603
▁Staff	-7604
▁prize	-7605
▁shark	-7606
▁spoil	-7607
▁Normal	-7608
▁allows	-7609
▁breaks	-7610
▁heroin	-7611
▁hunter	-7612
▁kidnap	-7613
▁nephew	-7614
▁packed	-7615
▁retrie	-7616
▁Awesome	-7617
▁compass	-7618
▁messing	-7619
▁privacy	-7620
▁Together	-7621
▁judgment	-7622
▁punished	-7623
▁stubborn	-7624
▁procedure	-7625
▁recommend	-7626
▁explanation	-7627
-3	-7628
IF	-7629
ti	-7630
aki	-7631
azz	-7632
▁CD	-7633
▁JO	-7634
With	-7635
anch	-7636
ases	-7637
reek	-7638
sect	-7639
ussy	-7640
▁Ale	-7641
▁Ice	-7642
▁Kel	-7643
▁Mid	-7644
▁Opt	-7645
▁Seb	-7646
▁URL	-7647
▁Vic	-7648
▁var	-7649
ginal	-7650
stick	-7651
▁'...	-7652
▁Modi	-7653
▁Says	-7654
▁pipe	-7655
▁tast	-7656
▁zomb	-7657
uction	-7658
▁adopt	-7659
▁equal	-7660
▁manif	-7661
▁Avatar	-7662
▁Behind	-7663
▁Duggal	-7664
▁Folder	-7665
▁legacy	-7666
▁motion	-7667
▁rounds	-7668
▁shrink	-7669
▁Capitol	-7670
▁Darling	-7671
▁freight	-7672
▁hostages	-7673
▁multiple	-7674
▁opposite	-7675
▁sometime	-7676
▁excellent	-7677
▁disgusting	-7678
▁pretending	-7679
▁suspicious	-7680
▁combination	-7681
Go	-7682
On	-7683
00.	-7684
umn	-7685
▁ax	-7686
life	-7687
onym	-7688
stop	-7689
uary	-7690
umes	-7691
▁Ali	-7692
▁Fer	-7693
▁Fix	-7694
▁Gro	-7695
▁Tag	-7696
▁hyd	-7697
icken	-7698
▁Coop	-7699
▁Flor	-7700
▁Horn	-7701
▁Moon	-7702
▁Plus	-7703
▁Sara	-7704
▁Sent	-7705
▁bait	-7706
mitted	-7707
▁Mummy	-7708
▁added	-7709
▁asset	-7710
▁bills	-7711
▁souls	-7712
▁Carlos	-7713
▁Screen	-7714
▁addict	-7715
▁subway	-7716
▁timing	-7717
fficient	-7718
irectory	-7719
▁advance	-7720
▁cutting	-7721
▁engines	-7722
▁reactor	-7723
▁reverse	-7724
▁stretch	-7725
▁Honestly	-7726
▁November	-7727
▁exercise	-7728
▁grandson	-7729
▁movement	-7730
▁pathetic	-7731
▁reported	-7732
▁requires	-7733
▁employees	-7734
▁separated	-7735
▁Department	-7736
▁operations	-7737
▁threatening	-7738
▁transmission	-7739
5,	-7740
TA	-7741
ba	-7742
aps	-7743
pai	-7744
gain	-7745
yard	-7746
▁Amm	-7747
▁Ball	-7748
▁Bhai	-7749
▁Edit	-7750
▁Eyes	-7751
▁math	-7752
▁meds	-7753
minist	-7754
necess	-7755
ounter	-7756
▁Allen	-7757
▁Beans	-7758
▁Docum	-7759
▁Focus	-7760
▁Horse	-7761
▁Hyder	-7762
▁Rajat	-7763
▁cheer	-7764
▁chill	-7765
▁consc	-7766
▁fetch	-7767
▁knees	-7768
▁mustn	-7769
▁Deputy	-7770
▁Report	-7771
▁breach	-7772
▁helmet	-7773
▁ritual	-7774
▁serial	-7775
▁sticks	-7776
▁wasted	-7777
▁Chester	-7778
▁exposed	-7779
▁measure	-7780
▁propose	-7781
▁targets	-7782
▁attorney	-7783
▁creating	-7784
▁informed	-7785
▁necklace	-7786
▁spending	-7787
▁Collector	-7788
▁Sebastian	-7789
▁corrected	-7790
▁political	-7791
▁generation	-7792
▁differently	-7793
4,	-7794
py	-7795
wa	-7796
bly	-7797
ugs	-7798
uma	-7799
▁Ak	-7800
bles	-7801
garh	-7802
gues	-7803
kind	-7804
oded	-7805
▁Ash	-7806
▁Eko	-7807
▁Gaj	-7808
▁cre	-7809
▁pow	-7810
roups	-7811
▁Babu	-7812
▁Iris	-7813
▁Kiss	-7814
▁NASA	-7815
▁Told	-7816
▁batt	-7817
▁bond	-7818
▁duck	-7819
▁raid	-7820
▁sexy	-7821
aution	-7822
estion	-7823
▁Irish	-7824
▁Techn	-7825
▁crush	-7826
▁greed	-7827
▁sites	-7828
▁cowboy	-7829
▁fourth	-7830
▁handed	-7831
▁integr	-7832
▁liquor	-7833
▁swords	-7834
▁Connect	-7835
▁Mission	-7836
▁Pacific	-7837
▁servant	-7838
▁accounts	-7839
▁disaster	-7840
▁download	-7841
▁friendly	-7842
▁particul	-7843
▁proposal	-7844
▁recorded	-7845
▁Somewhere	-7846
▁lightning	-7847
▁superhero	-7848
di	-7849
hay	-7850
lay	-7851
▁2:	-7852
▁NE	-7853
▁Oz	-7854
rand	-7855
roke	-7856
▁FOR	-7857
▁foc	-7858
▁nig	-7859
acles	-7860
eller	-7861
ength	-7862
escri	-7863
ipper	-7864
mates	-7865
▁Anth	-7866
▁KNOW	-7867
▁Reed	-7868
▁Riya	-7869
▁Rudy	-7870
▁Tool	-7871
▁gamb	-7872
▁gest	-7873
▁knee	-7874
▁lect	-7875
▁magn	-7876
▁teen	-7877
oretto	-7878
▁Beera	-7879
▁Block	-7880
▁Sandy	-7881
▁Speed	-7882
▁blond	-7883
▁chess	-7884
▁frust	-7885
▁juice	-7886
▁occup	-7887
▁behave	-7888
▁cheque	-7889
▁corpse	-7890
▁fights	-7891
▁honour	-7892
▁nearby	-7893
▁reveal	-7894
▁Address	-7895
▁Jackson	-7896
▁Quickly	-7897
▁Toretto	-7898
▁Wallace	-7899
▁alcohol	-7900
▁clients	-7901
▁scratch	-7902
▁studied	-7903
▁traitor	-7904
▁whistle	-7905
▁Pleasure	-7906
▁Republic	-7907
▁compound	-7908
▁election	-7909
▁honestly	-7910
▁invented	-7911
▁manufact	-7912
▁adventure	-7913
▁Definitely	-7914
▁undercover	-7915
Are	-7916
▁	-7917
e	-7918
o	-7919
t	-7920
a	-7921
n	-7922
i	-7923
s	-7924
h	-7925
r	-7926
l	-7927
.	-7928
u	-7929
d	-7930
y	-7931
m	-7932
g	-7933
w	-7934
c	-7935
f	-7936
'	-7937
,	-7938
p	-7939
k	-7940
b	-7941
I	-7942
v	-7943
?	-7944
-	-7945
W	-7946
T	-7947
!	-7948
Y	-7949
S	-7950
A	-7951
H	-7952
M	-7953
C	-7954
N	-7955
D	-7956
B	-7957
O	-7958
L	-7959
G	-7960
j	-7961
P	-7962
R	-7963
E	-7964
x	-7965
"	-7966
F	-7967
J	-7968
K	-7969
0	-7970
z	-7971
1	-7972
U	-7973
q	-7974
:	-7975
V	-7976
2	-7977
5	-7978
3	-7979
4	-7980
_	-7981
%	-7982
(	-7983
)	-7984
9	-7985
6	-7986
7	-7987
♪	-7988
ö	-7989
8	-7990
/	-7991
Q	-7992
]	-7993
[	-7994
Z	-7995
